{
  "version": "1.0",
  "truncation": {
    "direction": "Right",
    "max_length": 20,
    "strategy": "LongestFirst",
    "stride": 0
  },
  "padding": {
    "strategy": {
      "Fixed": 20
    },
    "direction": "Right",
    "pad_to_multiple_of": null,
    "pad_id": 0,
    "pad_type_id": 0,
    "pad_token": "[PAD]"
  },
  "added_tokens": [
    {
      "id": 0,
      "content": "[PAD]",
      "single_word": false,
      "lstrip": false,
      "rstrip": false,
      "normalized": false,
      "special": true
    },
    {
      "id": 1,
      "content": "[UNK]",
      "single_word": false,
      "lstrip": false,
      "rstrip": false,
      "normalized": false,
      "special": true
    }
  ],
  "normalizer": {
    "type": "Lowercase"
  },
  "pre_tokenizer": {
    "type": "Whitespace"
  },
  "post_processor": null,
  "decoder": null,
  "model": {
    "type": "WordPiece",
    "unk_token": "[UNK]",
    "continuing_subword_prefix": "##",
    "max_input_chars_per_word": 100,
    "vocab": {
      "[PAD]": 0,
      "[UNK]": 1,
      "a": 2,
      "b": 3,
      "c": 4,
      "d": 5,
      "e": 6,
      "f": 7,
      "g": 8,
      "h": 9,
      "i": 10,
      "j": 11,
      "k": 12,
      "l": 13,
      "m": 14,
      "n": 15,
      "o": 16,
      "p": 17,
      "q": 18,
      "r": 19,
      "s": 20,
      "t": 21,
      "u": 22,
      "v": 23,
      "w": 24,
      "x": 25,
      "y": 26,
      "z": 27,
      "##l": 28,
      "##o": 29,
      "##w": 30,
      "##u": 31,
      "##p": 32,
      "##c": 33,
      "##i": 34,
      "##d": 35,
      "##e": 36,
      "##n": 37,
      "##t": 38,
      "##a": 39,
      "##y": 40,
      "##v": 41,
      "##s": 42,
      "##h": 43,
      "##g": 44,
      "##b": 45,
      "##r": 46,
      "##m": 47,
      "##k": 48,
      "##x": 49,
      "##f": 50,
      "##z": 51,
      "##q": 52,
      "##j": 53,
      "##er": 54,
      "##in": 55,
      "##es": 56,
      "##an": 57,
      "##or": 58,
      "##on": 59,
      "##en": 60,
      "##at": 61,
      "##al": 62,
      "##ar": 63,
      "##ing": 64,
      "to": 65,
      "##it": 66,
      "##is": 67,
      "##ed": 68,
      "##mp": 69,
      "tr": 70,
      "##id": 71,
      "##ic": 72,
      "##il": 73,
      "##ou": 74,
      "##ump": 75,
      "th": 76,
      "in": 77,
      "trump": 78,
      "##as": 79,
      "##ion": 80,
      "##re": 81,
      "##us": 82,
      "re": 83,
      "##ac": 84,
      "##ts": 85,
      "of": 86,
      "##ro": 87,
      "##el": 88,
      "##eo": 89,
      "for": 90,
      "##ter": 91,
      "##ay": 92,
      "##ill": 93,
      "##am": 94,
      "##ideo": 95,
      "the": 96,
      "video": 97,
      "on": 98,
      "##le": 99,
      "##ent": 100,
      "de": 101,
      "##ig": 102,
      "##om": 103,
      "##ol": 104,
      "an": 105,
      "st": 106,
      "##ot": 107,
      "##ur": 108,
      "##ad": 109,
      "##ow": 110,
      "wh": 111,
      "##ers": 112,
      "us": 113,
      "##ch": 114,
      "##im": 115,
      "##ak": 116,
      "##et": 117,
      "##os": 118,
      "##ut": 119,
      "ch": 120,
      "##ve": 121,
      "##ct": 122,
      "##res": 123,
      "##ate": 124,
      "##ver": 125,
      "##ly": 126,
      "##ia": 127,
      "sh": 128,
      "is": 129,
      "##ack": 130,
      "##ir": 131,
      "ne": 132,
      "con": 133,
      "##ith": 134,
      "##ge": 135,
      "##th": 136,
      "with": 137,
      "and": 138,
      "##ation": 139,
      "##ist": 140,
      "##ays": 141,
      "##ce": 142,
      "pro": 143,
      "##oc": 144,
      "##and": 145,
      "be": 146,
      "##un": 147,
      "at": 148,
      "se": 149,
      "ob": 150,
      "##pp": 151,
      "##est": 152,
      "##ary": 153,
      "##se": 154,
      "cl": 155,
      "as": 156,
      "##ul": 157,
      "obam": 158,
      "rep": 159,
      "##ra": 160,
      "says": 161,
      "go": 162,
      "le": 163,
      "##ans": 164,
      "##ain": 165,
      "af": 166,
      "un": 167,
      "##ust": 168,
      "su": 169,
      "##ie": 170,
      "sp": 171,
      "##igh": 172,
      "##iv": 173,
      "he": 174,
      "##ore": 175,
      "new": 176,
      "##all": 177,
      "ex": 178,
      "pres": 179,
      "##st": 180,
      "ab": 181,
      "##ub": 182,
      "##ks": 183,
      "##ee": 184,
      "##ud": 185,
      "##ian": 186,
      "##ment": 187,
      "##mer": 188,
      "##our": 189,
      "after": 190,
      "bl": 191,
      "##ial": 192,
      "##op": 193,
      "##uss": 194,
      "##ld": 195,
      "obama": 196,
      "la": 197,
      "##ies": 198,
      "##illary": 199,
      "al": 200,
      "pol": 201,
      "##end": 202,
      "wat": 203,
      "##ton": 204,
      "##out": 205,
      "hillary": 206,
      "##ive": 207,
      "presid": 208,
      "ag": 209,
      "##lic": 210,
      "##oun": 211,
      "##ell": 212,
      "##ite": 213,
      "over": 214,
      "trumps": 215,
      "hou": 216,
      "off": 217,
      "##ort": 218,
      "dem": 219,
      "##ey": 220,
      "##ublic": 221,
      "##ction": 222,
      "cr": 223,
      "##rom": 224,
      "tw": 225,
      "me": 226,
      "ca": 227,
      "watch": 228,
      "##ity": 229,
      "##ant": 230,
      "##if": 231,
      "##ess": 232,
      "russ": 233,
      "by": 234,
      "##art": 235,
      "from": 236,
      "president": 237,
      "not": 238,
      "house": 239,
      "##ign": 240,
      "##ice": 241,
      "about": 242,
      "his": 243,
      "com": 244,
      "sen": 245,
      "pl": 246,
      "republic": 247,
      "clin": 248,
      "##ail": 249,
      "##od": 250,
      "clinton": 251,
      "##ag": 252,
      "##ab": 253,
      "##ib": 254,
      "just": 255,
      "will": 256,
      "##um": 257,
      "##ight": 258,
      "##ass": 259,
      "##der": 260,
      "ar": 261,
      "bre": 262,
      "##rat": 263,
      "en": 264,
      "ad": 265,
      "bill": 266,
      "white": 267,
      "##ap": 268,
      "##gh": 269,
      "att": 270,
      "##ip": 271,
      "out": 272,
      "##ran": 273,
      "##ters": 274,
      "don": 275,
      "##ake": 276,
      "law": 277,
      "##ence": 278,
      "co": 279,
      "dis": 280,
      "##ous": 281,
      "##ould": 282,
      "wor": 283,
      "amer": 284,
      "##ost": 285,
      "americ": 286,
      "##em": 287,
      "##ens": 288,
      "br": 289,
      "##ik": 290,
      "res": 291,
      "democ": 292,
      "##ally": 293,
      "it": 294,
      "call": 295,
      "##ace": 296,
      "##iz": 297,
      "her": 298,
      "war": 299,
      "democrat": 300,
      "sc": 301,
      "##ear": 302,
      "who": 303,
      "##ast": 304,
      "sec": 305,
      "##are": 306,
      "up": 307,
      "##ress": 308,
      "this": 309,
      "ele": 310,
      "pr": 311,
      "exp": 312,
      "ha": 313,
      "##ish": 314,
      "vot": 315,
      "##cc": 316,
      "jo": 317,
      "bo": 318,
      "##aking": 319,
      "you": 320,
      "again": 321,
      "supp": 322,
      "was": 323,
      "##man": 324,
      "state": 325,
      "##uc": 326,
      "##own": 327,
      "do": 328,
      "##ds": 329,
      "ta": 330,
      "nor": 331,
      "##ents": 332,
      "##ine": 333,
      "ref": 334,
      "fl": 335,
      "##ect": 336,
      "##eral": 337,
      "##ire": 338,
      "im": 339,
      "kore": 340,
      "that": 341,
      "lead": 342,
      "##ok": 343,
      "are": 344,
      "him": 345,
      "##age": 346,
      "russia": 347,
      "med": 348,
      "north": 349,
      "##ors": 350,
      "##vern": 351,
      "##ec": 352,
      "##pt": 353,
      "##ives": 354,
      "cour": 355,
      "##reat": 356,
      "govern": 357,
      "ro": 358,
      "te": 359,
      "we": 360,
      "black": 361,
      "##ock": 362,
      "##err": 363,
      "prot": 364,
      "sy": 365,
      "news": 366,
      "int": 367,
      "attack": 368,
      "##act": 369,
      "or": 370,
      "##av": 371,
      "election": 372,
      "republican": 373,
      "em": 374,
      "##ates": 375,
      "tax": 376,
      "##ath": 377,
      "##ns": 378,
      "gr": 379,
      "no": 380,
      "mus": 381,
      "against": 382,
      "##ft": 383,
      "has": 384,
      "##ree": 385,
      "##lim": 386,
      "##ard": 387,
      "ban": 388,
      "court": 389,
      "##ions": 390,
      "all": 391,
      "##gress": 392,
      "##itic": 393,
      "back": 394,
      "may": 395,
      "fir": 396,
      "min": 397,
      "##ces": 398,
      "##ald": 399,
      "camp": 400,
      "comm": 401,
      "##ile": 402,
      "def": 403,
      "part": 404,
      "##ox": 405,
      "##ick": 406,
      "chin": 407,
      "##ff": 408,
      "ant": 409,
      "cons": 410,
      "offic": 411,
      "##ges": 412,
      "##ict": 413,
      "man": 414,
      "##ber": 415,
      "##hing": 416,
      "kill": 417,
      "syr": 418,
      "senate": 419,
      "mo": 420,
      "##ious": 421,
      "muslim": 422,
      "##ome": 423,
      "show": 424,
      "breaking": 425,
      "donald": 426,
      "ge": 427,
      "tur": 428,
      "##iss": 429,
      "how": 430,
      "terr": 431,
      "##ys": 432,
      "##ru": 433,
      "korea": 434,
      "media": 435,
      "vote": 436,
      "can": 437,
      "##erv": 438,
      "##ists": 439,
      "why": 440,
      "app": 441,
      "sa": 442,
      "wom": 443,
      "##ition": 444,
      "col": 445,
      "lib": 446,
      "inter": 447,
      "##ning": 448,
      "calls": 449,
      "##ure": 450,
      "deal": 451,
      "gop": 452,
      "plan": 453,
      "##ry": 454,
      "congress": 455,
      "mar": 456,
      "##ons": 457,
      "am": 458,
      "##aign": 459,
      "##ide": 460,
      "tal": 461,
      "##und": 462,
      "campaign": 463,
      "##rem": 464,
      "##ase": 465,
      "qu": 466,
      "down": 467,
      "##uge": 468,
      "##lam": 469,
      "##ator": 470,
      "police": 471,
      "##akes": 472,
      "what": 473,
      "act": 474,
      "car": 475,
      "lo": 476,
      "see": 477,
      "more": 478,
      "##ails": 479,
      "##ong": 480,
      "republicans": 481,
      "eu": 482,
      "fin": 483,
      "##ations": 484,
      "have": 485,
      "##cl": 486,
      "##ep": 487,
      "terror": 488,
      "##leg": 489,
      "acc": 490,
      "mil": 491,
      "##ret": 492,
      "rac": 493,
      "##ern": 494,
      "##ash": 495,
      "##eets": 496,
      "if": 497,
      "##ugh": 498,
      "##her": 499,
      "suppor": 500,
      "official": 501,
      "its": 502,
      "obamas": 503,
      "##ade": 504,
      "iran": 505,
      "##yan": 506,
      "##ief": 507,
      "threat": 508,
      "tell": 509,
      "##ont": 510,
      "inv": 511,
      "cont": 512,
      "par": 513,
      "##io": 514,
      "##ike": 515,
      "##its": 516,
      "they": 517,
      "##old": 518,
      "##ime": 519,
      "##ich": 520,
      "ind": 521,
      "##wn": 522,
      "conf": 523,
      "##iew": 524,
      "il": 525,
      "one": 526,
      "##als": 527,
      "##bs": 528,
      "##ood": 529,
      "##ush": 530,
      "meet": 531,
      "##nn": 532,
      "##ound": 533,
      "##ue": 534,
      "milit": 535,
      "##ration": 536,
      "year": 537,
      "dep": 538,
      "##og": 539,
      "prob": 540,
      "win": 541,
      "##enc": 542,
      "sch": 543,
      "china": 544,
      "op": 545,
      "gu": 546,
      "##ple": 547,
      "##ism": 548,
      "ev": 549,
      "ph": 550,
      "##bi": 551,
      "democrats": 552,
      "##ied": 553,
      "comp": 554,
      "##erman": 555,
      "fr": 556,
      "##nt": 557,
      "##ands": 558,
      "russian": 559,
      "##alth": 560,
      "str": 561,
      "resp": 562,
      "coun": 563,
      "det": 564,
      "gets": 565,
      "##ory": 566,
      "##ond": 567,
      "sup": 568,
      "work": 569,
      "##outh": 570,
      "##ying": 571,
      "##one": 572,
      "##ting": 573,
      "america": 574,
      "##ely": 575,
      "##ose": 576,
      "end": 577,
      "peo": 578,
      "adm": 579,
      "imm": 580,
      "government": 581,
      "jud": 582,
      "put": 583,
      "##ug": 584,
      "##use": 585,
      "tweets": 586,
      "gun": 587,
      "german": 588,
      "mill": 589,
      "##ants": 590,
      "##ted": 591,
      "rec": 592,
      "deb": 593,
      "##aul": 594,
      "##ere": 595,
      "party": 596,
      "##orn": 597,
      "char": 598,
      "hel": 599,
      "##uring": 600,
      "say": 601,
      "ass": 602,
      "##ms": 603,
      "##ister": 604,
      "##ild": 605,
      "people": 606,
      "left": 607,
      "into": 608,
      "##lear": 609,
      "##ert": 610,
      "politic": 611,
      "##ame": 612,
      "vi": 613,
      "##rop": 614,
      "former": 615,
      "top": 616,
      "##ah": 617,
      "##ops": 618,
      "get": 619,
      "##eech": 620,
      "##ance": 621,
      "secret": 622,
      "##itter": 623,
      "health": 624,
      "fbi": 625,
      "speech": 626,
      "##ias": 627,
      "##ated": 628,
      "vis": 629,
      "south": 630,
      "##get": 631,
      "first": 632,
      "##ights": 633,
      "mon": 634,
      "turk": 635,
      "##uts": 636,
      "##ach": 637,
      "liberal": 638,
      "##ves": 639,
      "chr": 640,
      "rem": 641,
      "##oup": 642,
      "chief": 643,
      "talks": 644,
      "san": 645,
      "so": 646,
      "##rump": 647,
      "##ims": 648,
      "##lo": 649,
      "cla": 650,
      "vo": 651,
      "their": 652,
      "per": 653,
      "report": 654,
      "senator": 655,
      "##mak": 656,
      "twitter": 657,
      "##ating": 658,
      "##urity": 659,
      "but": 660,
      "ma": 661,
      "during": 662,
      "ep": 663,
      "##ric": 664,
      "illeg": 665,
      "would": 666,
      "##ervat": 667,
      "ever": 668,
      "har": 669,
      "cnn": 670,
      "refuge": 671,
      "pm": 672,
      "bec": 673,
      "under": 674,
      "security": 675,
      "conservat": 676,
      "##ico": 677,
      "than": 678,
      "spe": 679,
      "leader": 680,
      "fact": 681,
      "##az": 682,
      "##ull": 683,
      "##qu": 684,
      "should": 685,
      "tells": 686,
      "##row": 687,
      "##ful": 688,
      "suprem": 689,
      "bom": 690,
      "syria": 691,
      "##ency": 692,
      "immig": 693,
      "##view": 694,
      "big": 695,
      "ins": 696,
      "could": 697,
      "bor": 698,
      "fox": 699,
      "opp": 700,
      "##orm": 701,
      "make": 702,
      "dec": 703,
      "protes": 704,
      "did": 705,
      "##ool": 706,
      "##ger": 707,
      "when": 708,
      "##anders": 709,
      "aw": 710,
      "##oll": 711,
      "imp": 712,
      "air": 713,
      "sho": 714,
      "minister": 715,
      "dest": 716,
      "kn": 717,
      "miss": 718,
      "nation": 719,
      "reg": 720,
      "poll": 721,
      "lawmak": 722,
      "viol": 723,
      "##ends": 724,
      "invest": 725,
      "islam": 726,
      "adv": 727,
      "sw": 728,
      "arres": 729,
      "##ings": 730,
      "##els": 731,
      "press": 732,
      "she": 733,
      "des": 734,
      "##air": 735,
      "##erson": 736,
      "brit": 737,
      "racist": 738,
      "##eet": 739,
      "##ene": 740,
      "ret": 741,
      "##uz": 742,
      "leg": 743,
      "help": 744,
      "del": 745,
      "##ctions": 746,
      "##ough": 747,
      "dr": 748,
      "##king": 749,
      "rele": 750,
      "##oss": 751,
      "##aks": 752,
      "mex": 753,
      "group": 754,
      "sour": 755,
      "##ned": 756,
      "judge": 757,
      "##xit": 758,
      "sanders": 759,
      "##gy": 760,
      "repor": 761,
      "chan": 762,
      "uk": 763,
      "stud": 764,
      "ira": 765,
      "support": 766,
      "iraq": 767,
      "ur": 768,
      "##ise": 769,
      "destro": 770,
      "##ili": 771,
      "disc": 772,
      "rul": 773,
      "fore": 774,
      "million": 775,
      "sex": 776,
      "mat": 777,
      "nom": 778,
      "##oses": 779,
      "face": 780,
      "fed": 781,
      "fight": 782,
      "want": 783,
      "##ical": 784,
      "fund": 785,
      "military": 786,
      "host": 787,
      "cor": 788,
      "own": 789,
      "ra": 790,
      "foreign": 791,
      "sur": 792,
      "##ames": 793,
      "##ines": 794,
      "cruz": 795,
      "probe": 796,
      "fake": 797,
      "##fore": 798,
      "##ins": 799,
      "tweet": 800,
      "them": 801,
      "##uclear": 802,
      "##box": 803,
      "need": 804,
      "before": 805,
      "##ilar": 806,
      "being": 807,
      "##uck": 808,
      "makes": 809,
      "hillarys": 810,
      "americans": 811,
      "shows": 812,
      "wont": 813,
      "brexit": 814,
      "school": 815,
      "factbox": 816,
      "trans": 817,
      "ann": 818,
      "sus": 819,
      "##ty": 820,
      "##care": 821,
      "governor": 822,
      "##ues": 823,
      "cand": 824,
      "two": 825,
      "hack": 826,
      "##eal": 827,
      "cit": 828,
      "christ": 829,
      "nuclear": 830,
      "##elf": 831,
      "pan": 832,
      "##udi": 833,
      "##ains": 834,
      "wants": 835,
      "bar": 836,
      "supreme": 837,
      "investig": 838,
      "vict": 839,
      "your": 840,
      "does": 841,
      "supporters": 842,
      "nomin": 843,
      "candid": 844,
      "right": 845,
      "head": 846,
      "bern": 847,
      "hum": 848,
      "border": 849,
      "run": 850,
      "sl": 851,
      "hilar": 852,
      "hes": 853,
      "like": 854,
      "polic": 855,
      "inf": 856,
      "presidential": 857,
      "post": 858,
      "mem": 859,
      "##les": 860,
      "turkey": 861,
      "american": 862,
      "hilarious": 863,
      "soc": 864,
      "woman": 865,
      "putin": 866,
      "gen": 867,
      "##day": 868,
      "##uth": 869,
      "##ctor": 870,
      "national": 871,
      "day": 872,
      "take": 873,
      "##ck": 874,
      "##mar": 875,
      "##he": 876,
      "##ren": 877,
      "obamac": 878,
      "goes": 879,
      "respon": 880,
      "cat": 881,
      "high": 882,
      "ny": 883,
      "rally": 884,
      "##able": 885,
      "expl": 886,
      "##ows": 887,
      "women": 888,
      "our": 889,
      "ir": 890,
      "##tle": 891,
      "##ower": 892,
      "obamacare": 893,
      "##ible": 894,
      "open": 895,
      "dire": 896,
      "wow": 897,
      "##ual": 898,
      "dead": 899,
      "emb": 900,
      "##ind": 901,
      "fe": 902,
      "time": 903,
      "##bo": 904,
      "fran": 905,
      "most": 906,
      "prop": 907,
      "rel": 908,
      "susp": 909,
      "sanctions": 910,
      "mich": 911,
      "sign": 912,
      "##ese": 913,
      "leaders": 914,
      "illegal": 915,
      "joh": 916,
      "bro": 917,
      "##oin": 918,
      "##ady": 919,
      "##ther": 920,
      "pay": 921,
      "##up": 922,
      "bernie": 923,
      "pre": 924,
      "fam": 925,
      "healthcare": 926,
      "bra": 927,
      "bus": 928,
      "##ele": 929,
      "visit": 930,
      "mcc": 931,
      "sm": 932,
      "##ord": 933,
      "critic": 934,
      "rights": 935,
      "##con": 936,
      "##ya": 937,
      "##imate": 938,
      "set": 939,
      "##eep": 940,
      "world": 941,
      "##ave": 942,
      "##ott": 943,
      "##osition": 944,
      "##ged": 945,
      "##rupt": 946,
      "meeting": 947,
      "##xt": 948,
      "##land": 949,
      "##we": 950,
      "je": 951,
      "race": 952,
      "##ery": 953,
      "##ork": 954,
      "##ense": 955,
      "##ife": 956,
      "##bc": 957,
      "##ink": 958,
      "##ects": 959,
      "debate": 960,
      "antit": 961,
      "quest": 962,
      "death": 963,
      "child": 964,
      "political": 965,
      "islamic": 966,
      "dont": 967,
      "attacks": 968,
      "pe": 969,
      "##inist": 970,
      "stop": 971,
      "##ocking": 972,
      "social": 973,
      "ve": 974,
      "every": 975,
      "test": 976,
      "##ders": 977,
      "states": 978,
      "saudi": 979,
      "ap": 980,
      "bid": 981,
      "##acy": 982,
      "id": 983,
      "rap": 984,
      "arm": 985,
      "bet": 986,
      "##ily": 987,
      "hol": 988,
      "mass": 989,
      "##ior": 990,
      "ryan": 991,
      "old": 992,
      "wall": 993,
      "##uses": 994,
      "policy": 995,
      "##jor": 996,
      "killed": 997,
      "refugees": 998,
      "##ony": 999,
      "inc": 1000,
      "pass": 1001,
      "##ale": 1002,
      "bel": 1003,
      "kid": 1004,
      "wee": 1005,
      "##iam": 1006,
      "trav": 1007,
      "any": 1008,
      "isra": 1009,
      "comey": 1010,
      "major": 1011,
      "some": 1012,
      "##ause": 1013,
      "##other": 1014,
      "speak": 1015,
      "catal": 1016,
      "bu": 1017,
      "##ane": 1018,
      "move": 1019,
      "advis": 1020,
      "hur": 1021,
      "now": 1022,
      "##uel": 1023,
      "aid": 1024,
      "bud": 1025,
      "gives": 1026,
      "##vo": 1027,
      "##ke": 1028,
      "##ators": 1029,
      "count": 1030,
      "##ips": 1031,
      "lat": 1032,
      "contro": 1033,
      "lawmakers": 1034,
      "announ": 1035,
      "##ians": 1036,
      "free": 1037,
      "##uch": 1038,
      "only": 1039,
      "depart": 1040,
      "must": 1041,
      "interview": 1042,
      "ext": 1043,
      "##aff": 1044,
      "##erk": 1045,
      "cris": 1046,
      "##iff": 1047,
      "den": 1048,
      "##ution": 1049,
      "syrian": 1050,
      "administ": 1051,
      "travel": 1052,
      "found": 1053,
      "climate": 1054,
      "sn": 1055,
      "##ivers": 1056,
      "antitrump": 1057,
      "##nc": 1058,
      "star": 1059,
      "next": 1060,
      "colle": 1061,
      "response": 1062,
      "pop": 1063,
      "years": 1064,
      "##ri": 1065,
      "mexico": 1066,
      "let": 1067,
      "reve": 1068,
      "conservative": 1069,
      "tim": 1070,
      "room": 1071,
      "##ught": 1072,
      "crisis": 1073,
      "##ling": 1074,
      "##sh": 1075,
      "##ending": 1076,
      "commit": 1077,
      "details": 1078,
      "because": 1079,
      "hop": 1080,
      "while": 1081,
      "warns": 1082,
      "order": 1083,
      "billion": 1084,
      "##anc": 1085,
      "trade": 1086,
      "immigration": 1087,
      "discuss": 1088,
      "##red": 1089,
      "##ann": 1090,
      "##lin": 1091,
      "##vers": 1092,
      "claims": 1093,
      "urges": 1094,
      "coal": 1095,
      "bomb": 1096,
      "shoot": 1097,
      "beh": 1098,
      "##yanmar": 1099,
      "desp": 1100,
      "administration": 1101,
      "myanmar": 1102,
      "tar": 1103,
      "##ream": 1104,
      "protest": 1105,
      "general": 1106,
      "jap": 1107,
      "##ner": 1108,
      "tre": 1109,
      "got": 1110,
      "##ustr": 1111,
      "protesters": 1112,
      "panel": 1113,
      "ben": 1114,
      "mur": 1115,
      "##son": 1116,
      "##gr": 1117,
      "##back": 1118,
      "play": 1119,
      "##ected": 1120,
      "officials": 1121,
      "candidate": 1122,
      "power": 1123,
      "##istan": 1124,
      "supporter": 1125,
      "budget": 1126,
      "ac": 1127,
      "##down": 1128,
      "far": 1129,
      "takes": 1130,
      "defense": 1131,
      "##ize": 1132,
      "push": 1133,
      "ser": 1134,
      "kur": 1135,
      "ted": 1136,
      "chair": 1137,
      "opposition": 1138,
      "department": 1139,
      "##ision": 1140,
      "going": 1141,
      "caught": 1142,
      "sources": 1143,
      "fire": 1144,
      "##iness": 1145,
      "conc": 1146,
      "were": 1147,
      "##fl": 1148,
      "iss": 1149,
      "##unch": 1150,
      "secretary": 1151,
      "israel": 1152,
      "emails": 1153,
      "cro": 1154,
      "el": 1155,
      "keep": 1156,
      "prom": 1157,
      "asks": 1158,
      "##ages": 1159,
      "justice": 1160,
      "till": 1161,
      "##ises": 1162,
      "activ": 1163,
      "students": 1164,
      "fun": 1165,
      "##elly": 1166,
      "case": 1167,
      "fac": 1168,
      "lawy": 1169,
      "democratic": 1170,
      "voters": 1171,
      "austr": 1172,
      "way": 1173,
      "email": 1174,
      "commun": 1175,
      "change": 1176,
      "peace": 1177,
      "ask": 1178,
      "tex": 1179,
      "##ason": 1180,
      "##rants": 1181,
      "money": 1182,
      "kelly": 1183,
      "real": 1184,
      "near": 1185,
      "perf": 1186,
      "pal": 1187,
      "pick": 1188,
      "##head": 1189,
      "hate": 1190,
      "ties": 1191,
      "##ix": 1192,
      "##ina": 1193,
      "dan": 1194,
      "eff": 1195,
      "gra": 1196,
      "step": 1197,
      "##irl": 1198,
      "plans": 1199,
      "geor": 1200,
      "rad": 1201,
      "releas": 1202,
      "##ince": 1203,
      "city": 1204,
      "business": 1205,
      "list": 1206,
      "wr": 1207,
      "##ison": 1208,
      "week": 1209,
      "##usive": 1210,
      "cops": 1211,
      "pu": 1212,
      "##ones": 1213,
      "##ocks": 1214,
      "john": 1215,
      "##rant": 1216,
      "flag": 1217,
      "reporter": 1218,
      "excl": 1219,
      "mayor": 1220,
      "##hington": 1221,
      "cant": 1222,
      "paul": 1223,
      "##wh": 1224,
      "##hip": 1225,
      "ste": 1226,
      "appro": 1227,
      "pat": 1228,
      "##way": 1229,
      "##ention": 1230,
      "destroy": 1231,
      "fre": 1232,
      "girl": 1233,
      "mel": 1234,
      "mess": 1235,
      "##ank": 1236,
      "##asts": 1237,
      "never": 1238,
      "##ult": 1239,
      "brut": 1240,
      "heres": 1241,
      "washington": 1242,
      "##erkel": 1243,
      "tillerson": 1244,
      "huge": 1245,
      "lives": 1246,
      "happ": 1247,
      "arrested": 1248,
      "great": 1249,
      "last": 1250,
      "mig": 1251,
      "intern": 1252,
      "violence": 1253,
      "hand": 1254,
      "##co": 1255,
      "##used": 1256,
      "##ws": 1257,
      "##usted": 1258,
      "texas": 1259,
      "##ier": 1260,
      "##osed": 1261,
      "bur": 1262,
      "dra": 1263,
      "##led": 1264,
      "##pit": 1265,
      "truth": 1266,
      "director": 1267,
      "econ": 1268,
      "##usal": 1269,
      "cub": 1270,
      "##orney": 1271,
      "rules": 1272,
      "econom": 1273,
      "slam": 1274,
      "##ron": 1275,
      "##ities": 1276,
      "##ics": 1277,
      "still": 1278,
      "shocking": 1279,
      "class": 1280,
      "##ures": 1281,
      "ali": 1282,
      "attorney": 1283,
      "retur": 1284,
      "family": 1285,
      "exclusive": 1286,
      "key": 1287,
      "made": 1288,
      "##te": 1289,
      "exec": 1290,
      "##ender": 1291,
      "federal": 1292,
      "##bers": 1293,
      "##onn": 1294,
      "##ited": 1295,
      "##ional": 1296,
      "##ss": 1297,
      "##ident": 1298,
      "rev": 1299,
      "drop": 1300,
      "##ang": 1301,
      "ang": 1302,
      "isis": 1303,
      "team": 1304,
      "murder": 1305,
      "cop": 1306,
      "##erate": 1307,
      "resign": 1308,
      "boy": 1309,
      "ru": 1310,
      "serv": 1311,
      "##ires": 1312,
      "conv": 1313,
      "alleg": 1314,
      "investigation": 1315,
      "live": 1316,
      "##ma": 1317,
      "citiz": 1318,
      "hit": 1319,
      "vir": 1320,
      "##ites": 1321,
      "decl": 1322,
      "stand": 1323,
      "##imb": 1324,
      "shut": 1325,
      "spok": 1326,
      "college": 1327,
      "som": 1328,
      "##ced": 1329,
      "##iving": 1330,
      "image": 1331,
      "##epend": 1332,
      "cal": 1333,
      "public": 1334,
      "##ots": 1335,
      "##ban": 1336,
      "##aring": 1337,
      "##ican": 1338,
      "boil": 1339,
      "##rug": 1340,
      "nominee": 1341,
      "control": 1342,
      "my": 1343,
      "mac": 1344,
      "york": 1345,
      "##ening": 1346,
      "presidency": 1347,
      "really": 1348,
      "cond": 1349,
      "office": 1350,
      "give": 1351,
      "very": 1352,
      "afric": 1353,
      "##iant": 1354,
      "##ipl": 1355,
      "##azi": 1356,
      "ahead": 1357,
      "glo": 1358,
      "japan": 1359,
      "bat": 1360,
      "fly": 1361,
      "jer": 1362,
      "rest": 1363,
      "sent": 1364,
      "clintons": 1365,
      "laws": 1366,
      "seeks": 1367,
      "lit": 1368,
      "##usalem": 1369,
      "jerusalem": 1370,
      "home": 1371,
      "##nbc": 1372,
      "ina": 1373,
      "rej": 1374,
      "story": 1375,
      "conservatives": 1376,
      "hal": 1377,
      "leftist": 1378,
      "##erto": 1379,
      "puerto": 1380,
      "mom": 1381,
      "##ares": 1382,
      "force": 1383,
      "speaker": 1384,
      "had": 1385,
      "##yp": 1386,
      "##ved": 1387,
      "use": 1388,
      "voter": 1389,
      "matter": 1390,
      "hist": 1391,
      "##ving": 1392,
      "##orid": 1393,
      "##ats": 1394,
      "##andal": 1395,
      "job": 1396,
      "threatens": 1397,
      "##ments": 1398,
      "##orts": 1399,
      "independ": 1400,
      "germany": 1401,
      "tv": 1402,
      "florid": 1403,
      "terrorists": 1404,
      "assaul": 1405,
      "##iplom": 1406,
      "disp": 1407,
      "seek": 1408,
      "corrupt": 1409,
      "diplom": 1410,
      "##bor": 1411,
      "##sec": 1412,
      "good": 1413,
      "reform": 1414,
      "legal": 1415,
      "ed": 1416,
      "fra": 1417,
      "##less": 1418,
      "##self": 1419,
      "##gn": 1420,
      "stun": 1421,
      "senators": 1422,
      "##ghan": 1423,
      "decision": 1424,
      "lawyer": 1425,
      "dev": 1426,
      "said": 1427,
      "know": 1428,
      "lie": 1429,
      "##ourn": 1430,
      "##ikes": 1431,
      "priv": 1432,
      "army": 1433,
      "coalition": 1434,
      "boiler": 1435,
      "jail": 1436,
      "another": 1437,
      "##pped": 1438,
      "belie": 1439,
      "message": 1440,
      "cut": 1441,
      "dnc": 1442,
      "hom": 1443,
      "view": 1444,
      "##int": 1445,
      "##itch": 1446,
      "##allen": 1447,
      "##ikely": 1448,
      "allow": 1449,
      "crim": 1450,
      "coll": 1451,
      "##book": 1452,
      "shooting": 1453,
      "glob": 1454,
      "bad": 1455,
      "ham": 1456,
      "mid": 1457,
      "##dog": 1458,
      "hell": 1459,
      "mark": 1460,
      "even": 1461,
      "release": 1462,
      "emp": 1463,
      "yr": 1464,
      "##ania": 1465,
      "##idence": 1466,
      "##aster": 1467,
      "confir": 1468,
      "florida": 1469,
      "fail": 1470,
      "ms": 1471,
      "merkel": 1472,
      "po": 1473,
      "##sc": 1474,
      "told": 1475,
      "##ider": 1476,
      "start": 1477,
      "times": 1478,
      "##osts": 1479,
      "reason": 1480,
      "sub": 1481,
      "block": 1482,
      "amb": 1483,
      "##ugur": 1484,
      "humili": 1485,
      "execut": 1486,
      "rico": 1487,
      "##ait": 1488,
      "claim": 1489,
      "fem": 1490,
      "pence": 1491,
      "spec": 1492,
      "boom": 1493,
      "muslims": 1494,
      "bombs": 1495,
      "britain": 1496,
      "perfect": 1497,
      "##amp": 1498,
      "prof": 1499,
      "latest": 1500,
      "vene": 1501,
      "##go": 1502,
      "##zuel": 1503,
      "##ears": 1504,
      "korean": 1505,
      "sexual": 1506,
      "funding": 1507,
      "venezuel": 1508,
      "hun": 1509,
      "night": 1510,
      "##emp": 1511,
      "beg": 1512,
      "amid": 1513,
      "look": 1514,
      "terrorist": 1515,
      "embar": 1516,
      "question": 1517,
      "fraud": 1518,
      "##ournal": 1519,
      "hold": 1520,
      "##ye": 1521,
      "himself": 1522,
      "rohing": 1523,
      "lol": 1524,
      "poss": 1525,
      "##ward": 1526,
      "challen": 1527,
      "afghan": 1528,
      "cover": 1529,
      "george": 1530,
      "inaugur": 1531,
      "ore": 1532,
      "red": 1533,
      "son": 1534,
      "reb": 1535,
      "staff": 1536,
      "been": 1537,
      "canc": 1538,
      "##rope": 1539,
      "spokes": 1540,
      "journal": 1541,
      "sold": 1542,
      "##ago": 1543,
      "jobs": 1544,
      "long": 1545,
      "mos": 1546,
      "##liam": 1547,
      "##erence": 1548,
      "##ened": 1549,
      "##alia": 1550,
      "##ount": 1551,
      "##ilipp": 1552,
      "country": 1553,
      "##pital": 1554,
      "ear": 1555,
      "##oub": 1556,
      "agree": 1557,
      "scre": 1558,
      "philipp": 1559,
      "away": 1560,
      "behind": 1561,
      "rohingya": 1562,
      "er": 1563,
      "ken": 1564,
      "voting": 1565,
      "##ashes": 1566,
      "parliam": 1567,
      "kurd": 1568,
      "sess": 1569,
      "##wer": 1570,
      "##ility": 1571,
      "votes": 1572,
      "msnbc": 1573,
      "care": 1574,
      "pen": 1575,
      "leban": 1576,
      "##ified": 1577,
      "canad": 1578,
      "doesnt": 1579,
      "main": 1580,
      "parliament": 1581,
      "cra": 1582,
      "dam": 1583,
      "nfl": 1584,
      "##aw": 1585,
      "##ging": 1586,
      "##bia": 1587,
      "##icks": 1588,
      "wins": 1589,
      "remo": 1590,
      "kids": 1591,
      "catalan": 1592,
      "target": 1593,
      "ara": 1594,
      "busted": 1595,
      "full": 1596,
      "three": 1597,
      "forces": 1598,
      "##olog": 1599,
      "blasts": 1600,
      "mccain": 1601,
      "cam": 1602,
      "sar": 1603,
      "zimb": 1604,
      "sum": 1605,
      "refugee": 1606,
      "destroys": 1607,
      "asked": 1608,
      "zimbab": 1609,
      "net": 1610,
      "##rass": 1611,
      "##ative": 1612,
      "prosec": 1613,
      "scandal": 1614,
      "prison": 1615,
      "facebook": 1616,
      "global": 1617,
      "lies": 1618,
      "##hood": 1619,
      "##eth": 1620,
      "statement": 1621,
      "europe": 1622,
      "phot": 1623,
      "lawmaker": 1624,
      "british": 1625,
      "rule": 1626,
      "mad": 1627,
      "##ll": 1628,
      "##hell": 1629,
      "##izes": 1630,
      "compan": 1631,
      "ruling": 1632,
      "##wood": 1633,
      "##med": 1634,
      "##igence": 1635,
      "##ody": 1636,
      "ready": 1637,
      "##ather": 1638,
      "missile": 1639,
      "##pay": 1640,
      "brill": 1641,
      "charges": 1642,
      "france": 1643,
      "veter": 1644,
      "adviser": 1645,
      "embarrass": 1646,
      "best": 1647,
      "other": 1648,
      "sil": 1649,
      "review": 1650,
      "##elligence": 1651,
      "fired": 1652,
      "children": 1653,
      "hyp": 1654,
      "ign": 1655,
      "##ama": 1656,
      "##ury": 1657,
      "water": 1658,
      "##ific": 1659,
      "brutal": 1660,
      "bush": 1661,
      "civ": 1662,
      "##ute": 1663,
      "##iforn": 1664,
      "##umb": 1665,
      "intelligence": 1666,
      "victims": 1667,
      "holly": 1668,
      "citizens": 1669,
      "bombshell": 1670,
      "brilliant": 1671,
      "trying": 1672,
      "requ": 1673,
      "used": 1674,
      "fri": 1675,
      "crow": 1676,
      "egy": 1677,
      "##ler": 1678,
      "radical": 1679,
      "californ": 1680,
      "aud": 1681,
      "lond": 1682,
      "sk": 1683,
      "##iver": 1684,
      "##augh": 1685,
      "##gest": 1686,
      "##zy": 1687,
      "##ars": 1688,
      "chic": 1689,
      "##ocr": 1690,
      "##ortion": 1691,
      "march": 1692,
      "source": 1693,
      "##inks": 1694,
      "repeal": 1695,
      "elect": 1696,
      "independence": 1697,
      "hollywood": 1698,
      "bal": 1699,
      "cur": 1700,
      "bank": 1701,
      "month": 1702,
      "special": 1703,
      "aide": 1704,
      "mor": 1705,
      "tries": 1706,
      "##osing": 1707,
      "shot": 1708,
      "laugh": 1709,
      "orders": 1710,
      "iraqi": 1711,
      "days": 1712,
      "##dle": 1713,
      "##isc": 1714,
      "##ify": 1715,
      "backs": 1716,
      "hurric": 1717,
      "slams": 1718,
      "bab": 1719,
      "che": 1720,
      "repl": 1721,
      "agency": 1722,
      "add": 1723,
      "##ikile": 1724,
      "four": 1725,
      "##lish": 1726,
      "##ured": 1727,
      "##cept": 1728,
      "leave": 1729,
      "disg": 1730,
      "images": 1731,
      "##voy": 1732,
      "sessions": 1733,
      "hypocr": 1734,
      "fil": 1735,
      "gre": 1736,
      "king": 1737,
      "rub": 1738,
      "##pr": 1739,
      "##erm": 1740,
      "too": 1741,
      "##elle": 1742,
      "##ades": 1743,
      "cho": 1744,
      "break": 1745,
      "defends": 1746,
      "kills": 1747,
      "turkish": 1748,
      "despite": 1749,
      "danger": 1750,
      "inauguration": 1751,
      "##ikileaks": 1752,
      "likely": 1753,
      "yem": 1754,
      "##ney": 1755,
      "called": 1756,
      "div": 1757,
      "person": 1758,
      "sing": 1759,
      "think": 1760,
      "leav": 1761,
      "launch": 1762,
      "taxpay": 1763,
      "possible": 1764,
      "california": 1765,
      "hurricane": 1766,
      "##of": 1767,
      "##ards": 1768,
      "sees": 1769,
      "##stit": 1770,
      "arrest": 1771,
      "members": 1772,
      "internet": 1773,
      "chicago": 1774,
      "cia": 1775,
      "iv": 1776,
      "men": 1777,
      "poin": 1778,
      "##mit": 1779,
      "##room": 1780,
      "attemp": 1781,
      "outra": 1782,
      "##oked": 1783,
      "didnt": 1784,
      "##ought": 1785,
      "##iversity": 1786,
      "fur": 1787,
      "gl": 1788,
      "hot": 1789,
      "##ph": 1790,
      "##ness": 1791,
      "##gan": 1792,
      "##rough": 1793,
      "using": 1794,
      "bengh": 1795,
      "lying": 1796,
      "##ham": 1797,
      "##ests": 1798,
      "ans": 1799,
      "violent": 1800,
      "reveal": 1801,
      "cuba": 1802,
      "believe": 1803,
      "krem": 1804,
      "mod": 1805,
      "nat": 1806,
      "needs": 1807,
      "pun": 1808,
      "wikileaks": 1809,
      "youn": 1810,
      "##orse": 1811,
      "chinas": 1812,
      "final": 1813,
      "saying": 1814,
      "protests": 1815,
      "benghazi": 1816,
      "action": 1817,
      "cele": 1818,
      "doc": 1819,
      "hard": 1820,
      "wife": 1821,
      "##gender": 1822,
      "##ices": 1823,
      "##elos": 1824,
      "congressman": 1825,
      "rape": 1826,
      "##gram": 1827,
      "service": 1828,
      "ceo": 1829,
      "cuts": 1830,
      "fck": 1831,
      "num": 1832,
      "past": 1833,
      "##mas": 1834,
      "##cement": 1835,
      "consider": 1836,
      "build": 1837,
      "kremlin": 1838,
      "jr": 1839,
      "sor": 1840,
      "##tee": 1841,
      "sean": 1842,
      "leak": 1843,
      "##ized": 1844,
      "workers": 1845,
      "clear": 1846,
      "dist": 1847,
      "##ador": 1848,
      "shar": 1849,
      "##ular": 1850,
      "calling": 1851,
      "reveals": 1852,
      "##onnell": 1853,
      "flynn": 1854,
      "young": 1855,
      "mal": 1856,
      "pak": 1857,
      "yet": 1858,
      "##iers": 1859,
      "##af": 1860,
      "##ench": 1861,
      "##ised": 1862,
      "trip": 1863,
      "debt": 1864,
      "##ween": 1865,
      "macron": 1866,
      "prosecut": 1867,
      "gay": 1868,
      "making": 1869,
      "pot": 1870,
      "rom": 1871,
      "##uters": 1872,
      "##aid": 1873,
      "##ads": 1874,
      "##ired": 1875,
      "joe": 1876,
      "doj": 1877,
      "protect": 1878,
      "epic": 1879,
      "corruption": 1880,
      "disgust": 1881,
      "ball": 1882,
      "mu": 1883,
      "pelos": 1884,
      "##for": 1885,
      "##pping": 1886,
      "cab": 1887,
      "weap": 1888,
      "planned": 1889,
      "admits": 1890,
      "sarah": 1891,
      "celeb": 1892,
      "drug": 1893,
      "pull": 1894,
      "vet": 1895,
      "##ta": 1896,
      "##ste": 1897,
      "offer": 1898,
      "working": 1899,
      "between": 1900,
      "executive": 1901,
      "cy": 1902,
      "##port": 1903,
      "##ven": 1904,
      "##ries": 1905,
      "##urs": 1906,
      "##imm": 1907,
      "talk": 1908,
      "french": 1909,
      "groups": 1910,
      "human": 1911,
      "braz": 1912,
      "questions": 1913,
      "much": 1914,
      "##oks": 1915,
      "reuters": 1916,
      "without": 1917,
      "abs": 1918,
      "terrorism": 1919,
      "nyc": 1920,
      "hope": 1921,
      "issues": 1922,
      "middle": 1923,
      "female": 1924,
      "kurdish": 1925,
      "emer": 1926,
      "throw": 1927,
      "##urch": 1928,
      "program": 1929,
      "senior": 1930,
      "dc": 1931,
      "eth": 1932,
      "oil": 1933,
      "wal": 1934,
      "thug": 1935,
      "seen": 1936,
      "exposes": 1937,
      "##erry": 1938,
      "elections": 1939,
      "comments": 1940,
      "evidence": 1941,
      "michelle": 1942,
      "released": 1943,
      "##anka": 1944,
      "history": 1945,
      "crimin": 1946,
      "##uit": 1947,
      "where": 1948,
      "arg": 1949,
      "reports": 1950,
      "transgender": 1951,
      "announces": 1952,
      "assault": 1953,
      "##ob": 1954,
      "##ising": 1955,
      "apolog": 1956,
      "massive": 1957,
      "letter": 1958,
      "##ancy": 1959,
      "##anne": 1960,
      "angry": 1961,
      "ambass": 1962,
      "rubio": 1963,
      "hits": 1964,
      "##line": 1965,
      "##ument": 1966,
      "##got": 1967,
      "##eration": 1968,
      "tro": 1969,
      "anth": 1970,
      "stre": 1971,
      "art": 1972,
      "ent": 1973,
      "saf": 1974,
      "committee": 1975,
      "wrong": 1976,
      "drops": 1977,
      "pra": 1978,
      "aff": 1979,
      "come": 1980,
      "warren": 1981,
      "emplo": 1982,
      "ignor": 1983,
      "crowd": 1984,
      "london": 1985,
      "na": 1986,
      "nav": 1987,
      "sick": 1988,
      "vows": 1989,
      "these": 1990,
      "demands": 1991,
      "endorse": 1992,
      "victory": 1993,
      "activist": 1994,
      "rejects": 1995,
      "##ually": 1996,
      "##esome": 1997,
      "##arch": 1998,
      "thing": 1999,
      "##gets": 2000,
      "contin": 2001,
      "ukra": 2002,
      "egypt": 2003,
      "##par": 2004,
      "##gs": 2005,
      "##onia": 2006,
      "town": 2007,
      "join": 2008,
      "turn": 2009,
      "find": 2010,
      "paris": 2011,
      "epa": 2012,
      "christian": 2013,
      "audio": 2014,
      "gave": 2015,
      "rant": 2016,
      "##ming": 2017,
      "there": 2018,
      "##eless": 2019,
      "##ird": 2020,
      "role": 2021,
      "disgusting": 2022,
      "pelosi": 2023,
      "line": 2024,
      "mn": 2025,
      "oh": 2026,
      "rips": 2027,
      "wire": 2028,
      "##yl": 2029,
      "ital": 2030,
      "youre": 2031,
      "hilariously": 2032,
      "kellyanne": 2033,
      "erdog": 2034,
      "civil": 2035,
      "yemen": 2036,
      "east": 2037,
      "pent": 2038,
      "##ij": 2039,
      "thous": 2040,
      "through": 2041,
      "united": 2042,
      "##ift": 2043,
      "warning": 2044,
      "##eck": 2045,
      "finally": 2046,
      "##upid": 2047,
      "crooked": 2048,
      "battle": 2049,
      "pakistan": 2050,
      "erdogan": 2051,
      "##wing": 2052,
      "##right": 2053,
      "##oth": 2054,
      "proves": 2055,
      "##ude": 2056,
      "##yster": 2057,
      "liberals": 2058,
      "awesome": 2059,
      "##ucker": 2060,
      "barack": 2061,
      "hopes": 2062,
      "pentag": 2063,
      "sal": 2064,
      "stat": 2065,
      "stupid": 2066,
      "close": 2067,
      "ambassador": 2068,
      "street": 2069,
      "cle": 2070,
      "fut": 2071,
      "gold": 2072,
      "##ih": 2073,
      "##ai": 2074,
      "##the": 2075,
      "second": 2076,
      "pred": 2077,
      "defend": 2078,
      "pressure": 2079,
      "matt": 2080,
      "migrants": 2081,
      "doub": 2082,
      "xi": 2083,
      "##olution": 2084,
      "prov": 2085,
      "blames": 2086,
      "russias": 2087,
      "##ode": 2088,
      "comple": 2089,
      "strong": 2090,
      "surpr": 2091,
      "##election": 2092,
      "spokesman": 2093,
      "thousands": 2094,
      "hor": 2095,
      "life": 2096,
      "##bl": 2097,
      "abortion": 2098,
      "arms": 2099,
      "teen": 2100,
      "threats": 2101,
      "strike": 2102,
      "strikes": 2103,
      "charl": 2104,
      "regul": 2105,
      "##uthor": 2106,
      "passes": 2107,
      "pope": 2108,
      "freed": 2109,
      "crazy": 2110,
      "bath": 2111,
      "fall": 2112,
      "five": 2113,
      "foll": 2114,
      "mike": 2115,
      "tough": 2116,
      "##uty": 2117,
      "capital": 2118,
      "##uments": 2119,
      "ener": 2120,
      "refuses": 2121,
      "appoin": 2122,
      "biden": 2123,
      "ivanka": 2124,
      "bas": 2125,
      "lim": 2126,
      "tot": 2127,
      "##eld": 2128,
      "deep": 2129,
      "conway": 2130,
      "gov": 2131,
      "whoa": 2132,
      "flash": 2133,
      "moore": 2134,
      "carol": 2135,
      "millions": 2136,
      "chris": 2137,
      "running": 2138,
      "mcconnell": 2139,
      "venezuela": 2140,
      "cabin": 2141,
      "daugh": 2142,
      "##uary": 2143,
      "##sp": 2144,
      "##elc": 2145,
      "##stem": 2146,
      "##aps": 2147,
      "##earing": 2148,
      "system": 2149,
      "remar": 2150,
      "##reds": 2151,
      "stunning": 2152,
      "path": 2153,
      "stay": 2154,
      "envoy": 2155,
      "chinese": 2156,
      "accus": 2157,
      "future": 2158,
      "fo": 2159,
      "##bing": 2160,
      "##isl": 2161,
      "uses": 2162,
      "least": 2163,
      "endors": 2164,
      "legisl": 2165,
      "concern": 2166,
      "melania": 2167,
      "diplomat": 2168,
      "outrage": 2169,
      "bathroom": 2170,
      "cabinet": 2171,
      "nig": 2172,
      "ris": 2173,
      "##cr": 2174,
      "##ium": 2175,
      "trial": 2176,
      "##usion": 2177,
      "cred": 2178,
      "crack": 2179,
      "##ager": 2180,
      "faces": 2181,
      "return": 2182,
      "convention": 2183,
      "somet": 2184,
      "condem": 2185,
      "weapons": 2186,
      "horr": 2187,
      "tens": 2188,
      "##cil": 2189,
      "##eland": 2190,
      "shes": 2191,
      "university": 2192,
      "sug": 2193,
      "demand": 2194,
      "words": 2195,
      "racism": 2196,
      "parent": 2197,
      "front": 2198,
      "nato": 2199,
      "muell": 2200,
      "troops": 2201,
      "pentagon": 2202,
      "welc": 2203,
      "##uk": 2204,
      "church": 2205,
      "beat": 2206,
      "##pper": 2207,
      "spending": 2208,
      "coop": 2209,
      "approves": 2210,
      "##stitution": 2211,
      "name": 2212,
      "rio": 2213,
      "rich": 2214,
      "##umer": 2215,
      "##oric": 2216,
      "train": 2217,
      "##thers": 2218,
      "union": 2219,
      "spic": 2220,
      "organ": 2221,
      "##ission": 2222,
      "guy": 2223,
      "getting": 2224,
      "swed": 2225,
      "boyc": 2226,
      "private": 2227,
      "philippines": 2228,
      "dangerous": 2229,
      "cyber": 2230,
      "low": 2231,
      "nancy": 2232,
      "##val": 2233,
      "forced": 2234,
      "##ults": 2235,
      "offers": 2236,
      "contr": 2237,
      "record": 2238,
      "owner": 2239,
      "irma": 2240,
      "effort": 2241,
      "releases": 2242,
      "economic": 2243,
      "aliens": 2244,
      "soros": 2245,
      "brazil": 2246,
      "criminal": 2247,
      "loses": 2248,
      "ok": 2249,
      "rock": 2250,
      "##yn": 2251,
      "##gin": 2252,
      "##enn": 2253,
      "##ides": 2254,
      "sht": 2255,
      "progress": 2256,
      "exc": 2257,
      "##bert": 2258,
      "theyre": 2259,
      "strate": 2260,
      "student": 2261,
      "corp": 2262,
      "arabia": 2263,
      "navy": 2264,
      "author": 2265,
      "pict": 2266,
      "##ination": 2267,
      "super": 2268,
      "illegals": 2269,
      "insane": 2270,
      "christmas": 2271,
      "embass": 2272,
      "relations": 2273,
      "michig": 2274,
      "absol": 2275,
      "bir": 2276,
      "dream": 2277,
      "sund": 2278,
      "won": 2279,
      "well": 2280,
      "##olf": 2281,
      "hearing": 2282,
      "proble": 2283,
      "palest": 2284,
      "alien": 2285,
      "summit": 2286,
      "outs": 2287,
      "vp": 2288,
      "##pir": 2289,
      "##eriff": 2290,
      "##oul": 2291,
      "sheriff": 2292,
      "##ained": 2293,
      "dems": 2294,
      "comment": 2295,
      "killing": 2296,
      "catalonia": 2297,
      "little": 2298,
      "soldiers": 2299,
      "energy": 2300,
      "something": 2301,
      "puts": 2302,
      "sit": 2303,
      "##cent": 2304,
      "##eat": 2305,
      "##nns": 2306,
      "stage": 2307,
      "prod": 2308,
      "intel": 2309,
      "carson": 2310,
      "love": 2311,
      "denies": 2312,
      "punish": 2313,
      "cas": 2314,
      "eas": 2315,
      "##iw": 2316,
      "##tim": 2317,
      "##tern": 2318,
      "##ential": 2319,
      "labor": 2320,
      "hacking": 2321,
      "better": 2322,
      "foundation": 2323,
      "anthem": 2324,
      "embassy": 2325,
      "sunday": 2326,
      "est": 2327,
      "oops": 2328,
      "sell": 2329,
      "##iot": 2330,
      "##ral": 2331,
      "read": 2332,
      "refer": 2333,
      "guns": 2334,
      "immigrant": 2335,
      "insur": 2336,
      "transition": 2337,
      "candidates": 2338,
      "signs": 2339,
      "serious": 2340,
      "profess": 2341,
      "ukraine": 2342,
      "flashback": 2343,
      "doll": 2344,
      "lou": 2345,
      "##dra": 2346,
      "##ences": 2347,
      "##ided": 2348,
      "##ills": 2349,
      "##vey": 2350,
      "pled": 2351,
      "here": 2352,
      "antig": 2353,
      "financ": 2354,
      "spicer": 2355,
      "diff": 2356,
      "fans": 2357,
      "lose": 2358,
      "opt": 2359,
      "term": 2360,
      "##ball": 2361,
      "troll": 2362,
      "##iday": 2363,
      "blood": 2364,
      "##abeth": 2365,
      "##izabeth": 2366,
      "accuses": 2367,
      "conference": 2368,
      "deport": 2369,
      "respons": 2370,
      "council": 2371,
      "immigrants": 2372,
      "virgin": 2373,
      "lawsuit": 2374,
      "friend": 2375,
      "lar": 2376,
      "##pts": 2377,
      "##era": 2378,
      "incl": 2379,
      "blow": 2380,
      "crime": 2381,
      "amaz": 2382,
      "schools": 2383,
      "economy": 2384,
      "zimbabwe": 2385,
      "answer": 2386,
      "follow": 2387,
      "carolina": 2388,
      "michigan": 2389,
      "hus": 2390,
      "tucker": 2391,
      "##oon": 2392,
      "##eg": 2393,
      "##ex": 2394,
      "around": 2395,
      "breaks": 2396,
      "##izing": 2397,
      "politics": 2398,
      "elizabeth": 2399,
      "confirms": 2400,
      "avo": 2401,
      "grow": 2402,
      "hands": 2403,
      "hann": 2404,
      "val": 2405,
      "##lu": 2406,
      "##uct": 2407,
      "##uff": 2408,
      "##ection": 2409,
      "##mers": 2410,
      "anch": 2411,
      "withdra": 2412,
      "##abe": 2413,
      "roy": 2414,
      "##berg": 2415,
      "##ruct": 2416,
      "carl": 2417,
      "deputy": 2418,
      "percent": 2419,
      "harass": 2420,
      "suspected": 2421,
      "replace": 2422,
      "romney": 2423,
      "palestin": 2424,
      "fav": 2425,
      "ire": 2426,
      "##ael": 2427,
      "##edly": 2428,
      "##ifa": 2429,
      "americas": 2430,
      "bring": 2431,
      "taiw": 2432,
      "access": 2433,
      "militants": 2434,
      "johns": 2435,
      "treat": 2436,
      "issue": 2437,
      "leaves": 2438,
      "##goti": 2439,
      "james": 2440,
      "picks": 2441,
      "rid": 2442,
      "taking": 2443,
      "##do": 2444,
      "##ny": 2445,
      "##til": 2446,
      "##que": 2447,
      "##eres": 2448,
      "##ining": 2449,
      "##iles": 2450,
      "inj": 2451,
      "react": 2452,
      "##ember": 2453,
      "scar": 2454,
      "weigh": 2455,
      "turkeys": 2456,
      "relig": 2457,
      "michael": 2458,
      "prep": 2459,
      "extrem": 2460,
      "funds": 2461,
      "austral": 2462,
      "moment": 2463,
      "photo": 2464,
      "furious": 2465,
      "niger": 2466,
      "mueller": 2467,
      "esc": 2468,
      "fires": 2469,
      "hon": 2470,
      "might": 2471,
      "##bel": 2472,
      "##ali": 2473,
      "tom": 2474,
      "rece": 2475,
      "manager": 2476,
      "announcement": 2477,
      "powerful": 2478,
      "destroyed": 2479,
      "base": 2480,
      "fear": 2481,
      "##cow": 2482,
      "##oman": 2483,
      "proof": 2484,
      "spy": 2485,
      "spain": 2486,
      "##endum": 2487,
      "congressional": 2488,
      "kne": 2489,
      "member": 2490,
      "direct": 2491,
      "viral": 2492,
      "challenge": 2493,
      "oreg": 2494,
      "baltim": 2495,
      "referendum": 2496,
      "avoid": 2497,
      "food": 2498,
      "hall": 2499,
      "hour": 2500,
      "ke": 2501,
      "mocks": 2502,
      "today": 2503,
      "##idents": 2504,
      "things": 2505,
      "stree": 2506,
      "alab": 2507,
      "agre": 2508,
      "megy": 2509,
      "##aper": 2510,
      "exposed": 2511,
      "guil": 2512,
      "event": 2513,
      "mexican": 2514,
      "criticism": 2515,
      "palin": 2516,
      "allegations": 2517,
      "market": 2518,
      "afghanistan": 2519,
      "canada": 2520,
      "megyn": 2521,
      "cen": 2522,
      "cust": 2523,
      "cast": 2524,
      "hat": 2525,
      "jun": 2526,
      "lied": 2527,
      "mis": 2528,
      "nations": 2529,
      "same": 2530,
      "##trump": 2531,
      "reelection": 2532,
      "##oms": 2533,
      "##omes": 2534,
      "worst": 2535,
      "book": 2536,
      "northern": 2537,
      "conspir": 2538,
      "missing": 2539,
      "israeli": 2540,
      "activists": 2541,
      "remarks": 2542,
      "taiwan": 2543,
      "bund": 2544,
      "dav": 2545,
      "names": 2546,
      "west": 2547,
      "wait": 2548,
      "##ze": 2549,
      "##ino": 2550,
      "##aces": 2551,
      "##resp": 2552,
      "##enda": 2553,
      "agenda": 2554,
      "place": 2555,
      "##ape": 2556,
      "brief": 2557,
      "boost": 2558,
      "doing": 2559,
      "import": 2560,
      "polls": 2561,
      "treas": 2562,
      "request": 2563,
      "revealed": 2564,
      "charlott": 2565,
      "anchor": 2566,
      "cent": 2567,
      "ey": 2568,
      "less": 2569,
      "tak": 2570,
      "vac": 2571,
      "##ient": 2572,
      "##gl": 2573,
      "##but": 2574,
      "##iter": 2575,
      "##illy": 2576,
      "videos": 2577,
      "##etn": 2578,
      "nothing": 2579,
      "##ization": 2580,
      "##encies": 2581,
      "germanys": 2582,
      "billiona": 2583,
      "##cover": 2584,
      "hannity": 2585,
      "cre": 2586,
      "foc": 2587,
      "mock": 2588,
      "mother": 2589,
      "nbc": 2590,
      "##over": 2591,
      "##video": 2592,
      "##atter": 2593,
      "##ately": 2594,
      "##oming": 2595,
      "blackl": 2596,
      "many": 2597,
      "indones": 2598,
      "admit": 2599,
      "charged": 2600,
      "urge": 2601,
      "fighting": 2602,
      "influ": 2603,
      "explains": 2604,
      "moscow": 2605,
      "documents": 2606,
      "boycott": 2607,
      "virginia": 2608,
      "oregon": 2609,
      "mug": 2610,
      "##dd": 2611,
      "##ange": 2612,
      "sto": 2613,
      "##utely": 2614,
      "unc": 2615,
      "##iven": 2616,
      "blame": 2617,
      "dism": 2618,
      "exper": 2619,
      "flint": 2620,
      "koreas": 2621,
      "firm": 2622,
      "accused": 2623,
      "oper": 2624,
      "compl": 2625,
      "harir": 2626,
      "speaks": 2627,
      "impe": 2628,
      "inform": 2629,
      "brother": 2630,
      "african": 2631,
      "veterans": 2632,
      "mattis": 2633,
      "parenthood": 2634,
      "fle": 2635,
      "hyster": 2636,
      "pow": 2637,
      "ria": 2638,
      "##date": 2639,
      "##erally": 2640,
      "##ches": 2641,
      "##ctuary": 2642,
      "actually": 2643,
      "confed": 2644,
      "vietn": 2645,
      "delay": 2646,
      "controvers": 2647,
      "accept": 2648,
      "chairman": 2649,
      "returns": 2650,
      "lebanon": 2651,
      "months": 2652,
      "number": 2653,
      "absolutely": 2654,
      "johnson": 2655,
      "baltimore": 2656,
      "cow": 2657,
      "hid": 2658,
      "since": 2659,
      "##ois": 2660,
      "##woman": 2661,
      "##iet": 2662,
      "##by": 2663,
      "tried": 2664,
      "reach": 2665,
      "##anda": 2666,
      "##ander": 2667,
      "coming": 2668,
      "temp": 2669,
      "taxes": 2670,
      "allies": 2671,
      "illin": 2672,
      "max": 2673,
      "victim": 2674,
      "patr": 2675,
      "melt": 2676,
      "educ": 2677,
      "husb": 2678,
      "illinois": 2679,
      "kick": 2680,
      "loc": 2681,
      "##off": 2682,
      "##bur": 2683,
      "then": 2684,
      "thinks": 2685,
      "##utes": 2686,
      "shock": 2687,
      "waters": 2688,
      "elector": 2689,
      "##icted": 2690,
      "ill": 2691,
      "become": 2692,
      "thanks": 2693,
      "frances": 2694,
      "hurt": 2695,
      "early": 2696,
      "company": 2697,
      "address": 2698,
      "prosecutor": 2699,
      "financial": 2700,
      "bull": 2701,
      "dad": 2702,
      "li": 2703,
      "mag": 2704,
      "meets": 2705,
      "six": 2706,
      "##wes": 2707,
      "##cess": 2708,
      "##ax": 2709,
      "##gas": 2710,
      "##kk": 2711,
      "tour": 2712,
      "##ready": 2713,
      "stab": 2714,
      "check": 2715,
      "bey": 2716,
      "sets": 2717,
      "asia": 2718,
      "##ensive": 2719,
      "friday": 2720,
      "steve": 2721,
      "daughter": 2722,
      "confederate": 2723,
      "aim": 2724,
      "mic": 2725,
      "rnc": 2726,
      "##work": 2727,
      "##mber": 2728,
      "steal": 2729,
      "obs": 2730,
      "until": 2731,
      "##oph": 2732,
      "tech": 2733,
      "##fta": 2734,
      "firing": 2735,
      "actor": 2736,
      "supremac": 2737,
      "heads": 2738,
      "happened": 2739,
      "journalist": 2740,
      "embarrassing": 2741,
      "nafta": 2742,
      "carlson": 2743,
      "ireland": 2744,
      "conspiracy": 2745,
      "cost": 2746,
      "dir": 2747,
      "game": 2748,
      "met": 2749,
      "overs": 2750,
      "ple": 2751,
      "##eals": 2752,
      "##ille": 2753,
      "usa": 2754,
      "##thing": 2755,
      "##ulian": 2756,
      "heart": 2757,
      "agencies": 2758,
      "voted": 2759,
      "board": 2760,
      "officer": 2761,
      "indian": 2762,
      "recount": 2763,
      "soon": 2764,
      "communist": 2765,
      "green": 2766,
      "corpor": 2767,
      "dat": 2768,
      "##erican": 2769,
      "##ords": 2770,
      "stra": 2771,
      "already": 2772,
      "attend": 2773,
      "grand": 2774,
      "moves": 2775,
      "turns": 2776,
      "amend": 2777,
      "sanctuary": 2778,
      "britains": 2779,
      "cross": 2780,
      "efforts": 2781,
      "literally": 2782,
      "taxpayer": 2783,
      "impeach": 2784,
      "body": 2785,
      "creat": 2786,
      "du": 2787,
      "die": 2788,
      "sends": 2789,
      "##uation": 2790,
      "##uce": 2791,
      "##sen": 2792,
      "##sel": 2793,
      "##anish": 2794,
      "try": 2795,
      "##asc": 2796,
      "##imony": 2797,
      "##ival": 2798,
      "commission": 2799,
      "antifa": 2800,
      "finds": 2801,
      "detro": 2802,
      "cities": 2803,
      "explain": 2804,
      "oreilly": 2805,
      "baby": 2806,
      "ohio": 2807,
      "dumb": 2808,
      "ju": 2809,
      "rene": 2810,
      "self": 2811,
      "##nes": 2812,
      "##itt": 2813,
      "##itor": 2814,
      "dept": 2815,
      "##esty": 2816,
      "capt": 2817,
      "comed": 2818,
      "worse": 2819,
      "resc": 2820,
      "syrias": 2821,
      "raise": 2822,
      "highl": 2823,
      "everyone": 2824,
      "apart": 2825,
      "girls": 2826,
      "humiliates": 2827,
      "choice": 2828,
      "points": 2829,
      "celebr": 2830,
      "alabama": 2831,
      "eyes": 2832,
      "bul": 2833,
      "due": 2834,
      "paid": 2835,
      "send": 2836,
      "uks": 2837,
      "##han": 2838,
      "##orms": 2839,
      "##ark": 2840,
      "##acts": 2841,
      "##etic": 2842,
      "short": 2843,
      "search": 2844,
      "##ession": 2845,
      "russians": 2846,
      "comes": 2847,
      "##ika": 2848,
      "blacks": 2849,
      "orland": 2850,
      "parties": 2851,
      "##ruction": 2852,
      "appeals": 2853,
      "save": 2854,
      "propos": 2855,
      "prev": 2856,
      "incre": 2857,
      "steps": 2858,
      "journalists": 2859,
      "companies": 2860,
      "elected": 2861,
      "argent": 2862,
      "fix": 2863,
      "father": 2864,
      "gas": 2865,
      "golf": 2866,
      "hos": 2867,
      "lock": 2868,
      "port": 2869,
      "sat": 2870,
      "##wal": 2871,
      "##pan": 2872,
      "##ding": 2873,
      "##not": 2874,
      "##au": 2875,
      "##any": 2876,
      "took": 2877,
      "##amed": 2878,
      "negoti": 2879,
      "succ": 2880,
      "hear": 2881,
      "mov": 2882,
      "marr": 2883,
      "winning": 2884,
      "judic": 2885,
      "##ahu": 2886,
      "raid": 2887,
      "responds": 2888,
      "jean": 2889,
      "popular": 2890,
      "committed": 2891,
      "promises": 2892,
      "veteran": 2893,
      "attempt": 2894,
      "pastor": 2895,
      "potential": 2896,
      "freedom": 2897,
      "professor": 2898,
      "hariri": 2899,
      "cnns": 2900,
      "fan": 2901,
      "fal": 2902,
      "link": 2903,
      "rating": 2904,
      "wearing": 2905,
      "##oter": 2906,
      "##na": 2907,
      "##bre": 2908,
      "third": 2909,
      "##aming": 2910,
      "##oser": 2911,
      "unre": 2912,
      "abuse": 2913,
      "prince": 2914,
      "ground": 2915,
      "accident": 2916,
      "telling": 2917,
      "charge": 2918,
      "borders": 2919,
      "feds": 2920,
      "socialist": 2921,
      "ide": 2922,
      "concer": 2923,
      "displ": 2924,
      "throws": 2925,
      "guilty": 2926,
      "bundy": 2927,
      "billionaire": 2928,
      "vietnam": 2929,
      "maxine": 2930,
      "meltdown": 2931,
      "electoral": 2932,
      "figh": 2933,
      "iow": 2934,
      "lost": 2935,
      "tues": 2936,
      "##hots": 2937,
      "##gate": 2938,
      "##ray": 2939,
      "##att": 2940,
      "trad": 2941,
      "##icul": 2942,
      "##aced": 2943,
      "constitution": 2944,
      "hispan": 2945,
      "prime": 2946,
      "looks": 2947,
      "conflic": 2948,
      "biggest": 2949,
      "##backed": 2950,
      "migrant": 2951,
      "endorsement": 2952,
      "concerned": 2953,
      "picture": 2954,
      "detroit": 2955,
      "eye": 2956,
      "giving": 2957,
      "land": 2958,
      "nra": 2959,
      "qat": 2960,
      "##ne": 2961,
      "##eng": 2962,
      "##ational": 2963,
      "prove": 2964,
      "sea": 2965,
      "repres": 2966,
      "plot": 2967,
      "##ibility": 2968,
      "eng": 2969,
      "done": 2970,
      "bann": 2971,
      "libya": 2972,
      "finance": 2973,
      "iranian": 2974,
      "respond": 2975,
      "airport": 2976,
      "nomination": 2977,
      "broad": 2978,
      "testimony": 2979,
      "##ipsos": 2980,
      "promot": 2981,
      "community": 2982,
      "murdered": 2983,
      "perfectly": 2984,
      "reutersipsos": 2985,
      "thugs": 2986,
      "foot": 2987,
      "harassment": 2988,
      "jeanine": 2989,
      "tuesday": 2990,
      "easter": 2991,
      "kerry": 2992,
      "ment": 2993,
      "pos": 2994,
      "##iest": 2995,
      "##sa": 2996,
      "##bod": 2997,
      "##rict": 2998,
      "##ject": 2999,
      "##istic": 3000,
      "god": 3001,
      "sue": 3002,
      "agents": 3003,
      "ends": 3004,
      "scot": 3005,
      "update": 3006,
      "pric": 3007,
      "prim": 3008,
      "teac": 3009,
      "counter": 3010,
      "changes": 3011,
      "hacked": 3012,
      "rightwing": 3013,
      "targets": 3014,
      "brutally": 3015,
      "declares": 3016,
      "half": 3017,
      "cheer": 3018,
      "risk": 3019,
      "favor": 3020,
      "##glades": 3021,
      "data": 3022,
      "orlando": 3023,
      "ce": 3024,
      "fair": 3025,
      "loss": 3026,
      "lady": 3027,
      "pact": 3028,
      "sav": 3029,
      "##ield": 3030,
      "##iting": 3031,
      "##rod": 3032,
      "##ross": 3033,
      "##veil": 3034,
      "unp": 3035,
      "blast": 3036,
      "enter": 3037,
      "##ension": 3038,
      "expects": 3039,
      "appear": 3040,
      "quit": 3041,
      "parents": 3042,
      "guest": 3043,
      "##erty": 3044,
      "arrests": 3045,
      "deliver": 3046,
      "irish": 3047,
      "testify": 3048,
      "desperate": 3049,
      "players": 3050,
      "kurds": 3051,
      "australia": 3052,
      "zimbabwes": 3053,
      "condemns": 3054,
      "focus": 3055,
      "mugabe": 3056,
      "husband": 3057,
      "corporate": 3058,
      "movie": 3059,
      "gree": 3060,
      "mist": 3061,
      "pret": 3062,
      "vice": 3063,
      "##ps": 3064,
      "##dy": 3065,
      "##ville": 3066,
      "##bt": 3067,
      "##russ": 3068,
      "##rich": 3069,
      "thought": 3070,
      "##illing": 3071,
      "cha": 3072,
      "shuts": 3073,
      "##istry": 3074,
      "spanish": 3075,
      "##enshots": 3076,
      "scam": 3077,
      "flood": 3078,
      "banglades": 3079,
      "womens": 3080,
      "india": 3081,
      "##ounded": 3082,
      "fundra": 3083,
      "famil": 3084,
      "jeff": 3085,
      "anyone": 3086,
      "hung": 3087,
      "surprise": 3088,
      "includ": 3089,
      "ridicul": 3090,
      "education": 3091,
      "iowa": 3092,
      "bangladesh": 3093,
      "pet": 3094,
      "ran": 3095,
      "sol": 3096,
      "##dling": 3097,
      "theres": 3098,
      "##rol": 3099,
      "##ota": 3100,
      "##acks": 3101,
      "unhing": 3102,
      "suic": 3103,
      "meas": 3104,
      "disaster": 3105,
      "haw": 3106,
      "whats": 3107,
      "counsel": 3108,
      "assass": 3109,
      "inside": 3110,
      "surv": 3111,
      "suspect": 3112,
      "facts": 3113,
      "jailed": 3114,
      "##yees": 3115,
      "veto": 3116,
      "ethics": 3117,
      "employees": 3118,
      "pathetic": 3119,
      "streets": 3120,
      "center": 3121,
      "qatar": 3122,
      "unhinged": 3123,
      "jes": 3124,
      "kim": 3125,
      "lif": 3126,
      "lyn": 3127,
      "van": 3128,
      "##wers": 3129,
      "##nesty": 3130,
      "##mal": 3131,
      "##ined": 3132,
      "##ared": 3133,
      "isnt": 3134,
      "lav": 3135,
      "ally": 3136,
      "overh": 3137,
      "hous": 3138,
      "cry": 3139,
      "##ably": 3140,
      "enough": 3141,
      "enfor": 3142,
      "medic": 3143,
      "interf": 3144,
      "visa": 3145,
      "shooter": 3146,
      "feel": 3147,
      "majority": 3148,
      "kenya": 3149,
      "taxpayers": 3150,
      "##ihad": 3151,
      "problem": 3152,
      "outside": 3153,
      "palestinian": 3154,
      "australian": 3155,
      "treasury": 3156,
      "central": 3157,
      "represent": 3158,
      "ale": 3159,
      "cash": 3160,
      "fc": 3161,
      "kar": 3162,
      "kush": 3163,
      "vs": 3164,
      "went": 3165,
      "##oen": 3166,
      "##och": 3167,
      "##gency": 3168,
      "##mo": 3169,
      "##matter": 3170,
      "unl": 3171,
      "unveil": 3172,
      "##ifying": 3173,
      "expert": 3174,
      "flo": 3175,
      "appeal": 3176,
      "talking": 3177,
      "propag": 3178,
      "hammers": 3179,
      "philippine": 3180,
      "endorses": 3181,
      "amendment": 3182,
      "ridiculous": 3183,
      "overhaul": 3184,
      "eus": 3185,
      "others": 3186,
      "pain": 3187,
      "row": 3188,
      "roll": 3189,
      "##ble": 3190,
      "##inc": 3191,
      "##arre": 3192,
      "##itive": 3193,
      "##icle": 3194,
      "chuck": 3195,
      "asyl": 3196,
      "##aged": 3197,
      "residents": 3198,
      "scott": 3199,
      "teach": 3200,
      "wein": 3201,
      "webs": 3202,
      "attacked": 3203,
      "christie": 3204,
      "seth": 3205,
      "armed": 3206,
      "aides": 3207,
      "leaked": 3208,
      "entire": 3209,
      "tensions": 3210,
      "blacklives": 3211,
      "dirty": 3212,
      "highlights": 3213,
      "lynch": 3214,
      "asylum": 3215,
      "dom": 3216,
      "ug": 3217,
      "wed": 3218,
      "##lor": 3219,
      "##omp": 3220,
      "##hen": 3221,
      "##fire": 3222,
      "##ana": 3223,
      "##ona": 3224,
      "##isan": 3225,
      "##iled": 3226,
      "whos": 3227,
      "##iage": 3228,
      "neigh": 3229,
      "process": 3230,
      "seat": 3231,
      "asking": 3232,
      "unf": 3233,
      "watchdog": 3234,
      "bills": 3235,
      "rob": 3236,
      "minor": 3237,
      "ministry": 3238,
      "##gests": 3239,
      "mob": 3240,
      "opens": 3241,
      "reporters": 3242,
      "supporting": 3243,
      "wanted": 3244,
      "broke": 3245,
      "humiliated": 3246,
      "screenshots": 3247,
      "netany": 3248,
      "hysterical": 3249,
      "success": 3250,
      "dies": 3251,
      "dict": 3252,
      "non": 3253,
      "##pl": 3254,
      "##imp": 3255,
      "##ances": 3256,
      "##ores": 3257,
      "once": 3258,
      "sud": 3259,
      "##ended": 3260,
      "cauc": 3261,
      "arr": 3262,
      "ads": 3263,
      "results": 3264,
      "pray": 3265,
      "reforms": 3266,
      "officers": 3267,
      "lob": 3268,
      "worker": 3269,
      "explos": 3270,
      "countries": 3271,
      "graft": 3272,
      "##onna": 3273,
      "resigns": 3274,
      "cambod": 3275,
      "morning": 3276,
      "crackdown": 3277,
      "concerns": 3278,
      "bene": 3279,
      "fel": 3280,
      "hosts": 3281,
      "kkk": 3282,
      "las": 3283,
      "##you": 3284,
      "##het": 3285,
      "##mon": 3286,
      "sever": 3287,
      "separ": 3288,
      "presidents": 3289,
      "scr": 3290,
      "yearold": 3291,
      "schumer": 3292,
      "phone": 3293,
      "harvey": 3294,
      "##qual": 3295,
      "mexic": 3296,
      "christians": 3297,
      "leadership": 3298,
      "japans": 3299,
      "remove": 3300,
      "distur": 3301,
      "birth": 3302,
      "hours": 3303,
      "agrees": 3304,
      "important": 3305,
      "unreal": 3306,
      "blacklivesmatter": 3307,
      "audi": 3308,
      "cou": 3309,
      "hund": 3310,
      "mc": 3311,
      "od": 3312,
      "vol": 3313,
      "zeal": 3314,
      "thurs": 3315,
      "clar": 3316,
      "##stream": 3317,
      "abe": 3318,
      "disresp": 3319,
      "scream": 3320,
      "militant": 3321,
      "delivers": 3322,
      "study": 3323,
      "confirm": 3324,
      "amazing": 3325,
      "influence": 3326,
      "coup": 3327,
      "gang": 3328,
      "jack": 3329,
      "kas": 3330,
      "mi": 3331,
      "position": 3332,
      "punch": 3333,
      "##ners": 3334,
      "##sy": 3335,
      "##hillary": 3336,
      "storm": 3337,
      "lew": 3338,
      "##iev": 3339,
      "agent": 3340,
      "detained": 3341,
      "records": 3342,
      "advisor": 3343,
      "farright": 3344,
      "georg": 3345,
      "international": 3346,
      "homeland": 3347,
      "allowed": 3348,
      "collusion": 3349,
      "mosque": 3350,
      "credit": 3351,
      "insurance": 3352,
      "information": 3353,
      "straight": 3354,
      "marriage": 3355,
      "suicide": 3356,
      "kushner": 3357,
      "propaganda": 3358,
      "netanyahu": 3359,
      "caucus": 3360,
      "benef": 3361,
      "bag": 3362,
      "doss": 3363,
      "jones": 3364,
      "jihad": 3365,
      "ske": 3366,
      "##wa": 3367,
      "##een": 3368,
      "##gbt": 3369,
      "##ored": 3370,
      "reid": 3371,
      "stance": 3372,
      "lev": 3373,
      "##iance": 3374,
      "##ounts": 3375,
      "##ounds": 3376,
      "hero": 3377,
      "protrump": 3378,
      "manaf": 3379,
      "libyan": 3380,
      "account": 3381,
      "supports": 3382,
      "threatened": 3383,
      "visits": 3384,
      "bigot": 3385,
      "protester": 3386,
      "small": 3387,
      "weeks": 3388,
      "alleged": 3389,
      "poor": 3390,
      "launches": 3391,
      "emergency": 3392,
      "praises": 3393,
      "outrageous": 3394,
      "dollars": 3395,
      "religious": 3396,
      "liar": 3397,
      "hospital": 3398,
      "priceless": 3399,
      "teacher": 3400,
      "thursday": 3401,
      "bans": 3402,
      "eric": 3403,
      "hen": 3404,
      "mart": 3405,
      "sale": 3406,
      "##oo": 3407,
      "##ets": 3408,
      "##app": 3409,
      "##so": 3410,
      "##ril": 3411,
      "##ker": 3412,
      "##qa": 3413,
      "##arian": 3414,
      "##read": 3415,
      "anal": 3416,
      "sept": 3417,
      "obst": 3418,
      "unity": 3419,
      "commer": 3420,
      "##asty": 3421,
      "introd": 3422,
      "defeat": 3423,
      "info": 3424,
      "ident": 3425,
      "historic": 3426,
      "rebels": 3427,
      "mainstream": 3428,
      "friends": 3429,
      "safe": 3430,
      "totally": 3431,
      "diplomatic": 3432,
      "strategy": 3433,
      "dismiss": 3434,
      "flee": 3435,
      "local": 3436,
      "bannon": 3437,
      "##russia": 3438,
      "biz": 3439,
      "ging": 3440,
      "##lines": 3441,
      "##time": 3442,
      "##hs": 3443,
      "##ically": 3444,
      "those": 3445,
      "##this": 3446,
      "##ansas": 3447,
      "##alls": 3448,
      "abc": 3449,
      "##odes": 3450,
      "scalia": 3451,
      "price": 3452,
      "##ucks": 3453,
      "saud": 3454,
      "phony": 3455,
      "april": 3456,
      "massac": 3457,
      "starts": 3458,
      "draft": 3459,
      "##rugg": 3460,
      "dispute": 3461,
      "failed": 3462,
      "point": 3463,
      "mnuch": 3464,
      "charlottes": 3465,
      "experts": 3466,
      "complain": 3467,
      "primary": 3468,
      "disturbing": 3469,
      "bizarre": 3470,
      "aut": 3471,
      "dump": 3472,
      "dro": 3473,
      "jers": 3474,
      "mot": 3475,
      "posts": 3476,
      "rig": 3477,
      "tort": 3478,
      "##gus": 3479,
      "##ano": 3480,
      "##rets": 3481,
      "##using": 3482,
      "##ley": 3483,
      "strugg": 3484,
      "##ulation": 3485,
      "##ived": 3486,
      "crash": 3487,
      "env": 3488,
      "word": 3489,
      "thats": 3490,
      "banned": 3491,
      "amnesty": 3492,
      "carry": 3493,
      "##ogue": 3494,
      "held": 3495,
      "regime": 3496,
      "deleg": 3497,
      "cites": 3498,
      "buy": 3499,
      "snl": 3500,
      "sentence": 3501,
      "begin": 3502,
      "silent": 3503,
      "considering": 3504,
      "reaction": 3505,
      "hispanic": 3506,
      "dossier": 3507,
      "jersey": 3508,
      "both": 3509,
      "losing": 3510,
      "pur": 3511,
      "pack": 3512,
      "rush": 3513,
      "##ipped": 3514,
      "##racy": 3515,
      "##ask": 3516,
      "##eline": 3517,
      "forward": 3518,
      "##illed": 3519,
      "exit": 3520,
      "##rates": 3521,
      "donors": 3522,
      "donations": 3523,
      "defending": 3524,
      "##ningsen": 3525,
      "maher": 3526,
      "region": 3527,
      "policies": 3528,
      "jeb": 3529,
      "lawyers": 3530,
      "africas": 3531,
      "crimes": 3532,
      "european": 3533,
      "sharp": 3534,
      "duter": 3535,
      "false": 3536,
      "idea": 3537,
      "families": 3538,
      "hundreds": 3539,
      "henningsen": 3540,
      "gingrich": 3541,
      "charlottesville": 3542,
      "cree": 3543,
      "dall": 3544,
      "fell": 3545,
      "jimm": 3546,
      "living": 3547,
      "mond": 3548,
      "ol": 3549,
      "rise": 3550,
      "##weets": 3551,
      "##ae": 3552,
      "##hel": 3553,
      "##ken": 3554,
      "##zb": 3555,
      "##inger": 3556,
      "reag": 3557,
      "form": 3558,
      "dece": 3559,
      "chance": 3560,
      "bea": 3561,
      "##ustry": 3562,
      "democracy": 3563,
      "scal": 3564,
      "newsp": 3565,
      "attacking": 3566,
      "colom": 3567,
      "plane": 3568,
      "industry": 3569,
      "probes": 3570,
      "guess": 3571,
      "assad": 3572,
      "reportedly": 3573,
      "raises": 3574,
      "relief": 3575,
      "africa": 3576,
      "nightm": 3577,
      "continue": 3578,
      "complet": 3579,
      "suggests": 3580,
      "responsible": 3581,
      "weighs": 3582,
      "dallas": 3583,
      "jimmy": 3584,
      "boss": 3585,
      "given": 3586,
      "gonna": 3587,
      "late": 3588,
      "nar": 3589,
      "wild": 3590,
      "yell": 3591,
      "##pro": 3592,
      "##how": 3593,
      "##ki": 3594,
      "truck": 3595,
      "##term": 3596,
      "shreds": 3597,
      "##raft": 3598,
      "leaks": 3599,
      "spot": 3600,
      "##ublish": 3601,
      "cause": 3602,
      "ariz": 3603,
      "leads": 3604,
      "interest": 3605,
      "actress": 3606,
      "##here": 3607,
      "threaten": 3608,
      "threatening": 3609,
      "invol": 3610,
      "##riot": 3611,
      "##why": 3612,
      "citizen": 3613,
      "somali": 3614,
      "camer": 3615,
      "single": 3616,
      "hotel": 3617,
      "employ": 3618,
      "continues": 3619,
      "produc": 3620,
      "accidentally": 3621,
      "conflict": 3622,
      "audience": 3623,
      "disrespect": 3624,
      "manafort": 3625,
      "massacre": 3626,
      "bias": 3627,
      "dial": 3628,
      "oct": 3629,
      "##hol": 3630,
      "##bus": 3631,
      "##rum": 3632,
      "##inds": 3633,
      "##atch": 3634,
      "##arm": 3635,
      "todd": 3636,
      "##itb": 3637,
      "##itz": 3638,
      "##isy": 3639,
      "trash": 3640,
      "##ushing": 3641,
      "clash": 3642,
      "##aine": 3643,
      "unders": 3644,
      "exact": 3645,
      "ago": 3646,
      "diss": 3647,
      "expected": 3648,
      "joins": 3649,
      "joke": 3650,
      "robert": 3651,
      "firms": 3652,
      "antic": 3653,
      "quits": 3654,
      "##ogn": 3655,
      "remain": 3656,
      "suspends": 3657,
      "criticizes": 3658,
      "vegas": 3659,
      "idiot": 3660,
      "movement": 3661,
      "pushes": 3662,
      "cancels": 3663,
      "files": 3664,
      "building": 3665,
      "##stein": 3666,
      "legislation": 3667,
      "welcome": 3668,
      "riots": 3669,
      "david": 3670,
      "georgia": 3671,
      "mnuchin": 3672,
      "bow": 3673,
      "fuel": 3674,
      "ic": 3675,
      "nasty": 3676,
      "rand": 3677,
      "##lands": 3678,
      "##ience": 3679,
      "##onment": 3680,
      "##isters": 3681,
      "trib": 3682,
      "troub": 3683,
      "##rov": 3684,
      "##else": 3685,
      "##let": 3686,
      "whining": 3687,
      "##ironment": 3688,
      "lets": 3689,
      "blocks": 3690,
      "##ablish": 3691,
      "coast": 3692,
      "joy": 3693,
      "door": 3694,
      "grad": 3695,
      "planning": 3696,
      "charity": 3697,
      "drive": 3698,
      "snow": 3699,
      "across": 3700,
      "hypocrisy": 3701,
      "numbers": 3702,
      "malays": 3703,
      "total": 3704,
      "organiz": 3705,
      "swedish": 3706,
      "sudan": 3707,
      "kasich": 3708,
      "environment": 3709,
      "nightmare": 3710,
      "cath": 3711,
      "fer": 3712,
      "fit": 3713,
      "fears": 3714,
      "gar": 3715,
      "gut": 3716,
      "hers": 3717,
      "jan": 3718,
      "mult": 3719,
      "nails": 3720,
      "ram": 3721,
      "tun": 3722,
      "zika": 3723,
      "##ways": 3724,
      "##den": 3725,
      "##rim": 3726,
      "##fe": 3727,
      "toward": 3728,
      "trig": 3729,
      "traff": 3730,
      "station": 3731,
      "##ety": 3732,
      "conn": 3733,
      "offensive": 3734,
      "crush": 3735,
      "leading": 3736,
      "governors": 3737,
      "road": 3738,
      "weak": 3739,
      "mind": 3740,
      "##iction": 3741,
      "quick": 3742,
      "feed": 3743,
      "settle": 3744,
      "server": 3745,
      "funeral": 3746,
      "nearly": 3747,
      "##what": 3748,
      "hitler": 3749,
      "hunt": 3750,
      "longer": 3751,
      "relationship": 3752,
      "treatment": 3753,
      "injured": 3754,
      "chaos": 3755,
      "duterte": 3756,
      "monday": 3757,
      "dig": 3758,
      "tant": 3759,
      "##ole": 3760,
      "##wor": 3761,
      "##body": 3762,
      "##men": 3763,
      "##itions": 3764,
      "##edi": 3765,
      "trust": 3766,
      "##ula": 3767,
      "##rap": 3768,
      "enc": 3769,
      "brings": 3770,
      "expand": 3771,
      "meddling": 3772,
      "wealth": 3773,
      "protection": 3774,
      "campus": 3775,
      "##icking": 3776,
      "deals": 3777,
      "guard": 3778,
      "immedi": 3779,
      "undercover": 3780,
      "award": 3781,
      "shoots": 3782,
      "helped": 3783,
      "deadly": 3784,
      "peaceful": 3785,
      "reality": 3786,
      "radio": 3787,
      "draws": 3788,
      "classified": 3789,
      "resignation": 3790,
      "cancel": 3791,
      "photos": 3792,
      "hypocrite": 3793,
      "louis": 3794,
      "taken": 3795,
      "controversial": 3796,
      "arizona": 3797,
      "ber": 3798,
      "bail": 3799,
      "gone": 3800,
      "mitch": 3801,
      "nazi": 3802,
      "pie": 3803,
      "publish": 3804,
      "rate": 3805,
      "squ": 3806,
      "wisc": 3807,
      "##ued": 3808,
      "##dow": 3809,
      "##tr": 3810,
      "##rent": 3811,
      "##ased": 3812,
      "shame": 3813,
      "##estic": 3814,
      "##iful": 3815,
      "##aily": 3816,
      "arent": 3817,
      "bruss": 3818,
      "courts": 3819,
      "showing": 3820,
      "seeking": 3821,
      "recogn": 3822,
      "leftists": 3823,
      "harry": 3824,
      "helping": 3825,
      "memo": 3826,
      "comeys": 3827,
      "looking": 3828,
      "challenges": 3829,
      "network": 3830,
      "hopeful": 3831,
      "sales": 3832,
      "cooperation": 3833,
      "eastern": 3834,
      "website": 3835,
      "creep": 3836,
      "newspaper": 3837,
      "wiscons": 3838,
      "daily": 3839,
      "fails": 3840,
      "lot": 3841,
      "nc": 3842,
      "nuts": 3843,
      "nsa": 3844,
      "ped": 3845,
      "tears": 3846,
      "ut": 3847,
      "wit": 3848,
      "##lib": 3849,
      "##cing": 3850,
      "##tain": 3851,
      "##ring": 3852,
      "##ky": 3853,
      "##iders": 3854,
      "##icts": 3855,
      "##rect": 3856,
      "##aked": 3857,
      "chem": 3858,
      "chelse": 3859,
      "##ulf": 3860,
      "spying": 3861,
      "blaming": 3862,
      "lab": 3863,
      "##enders": 3864,
      "mean": 3865,
      "breitb": 3866,
      "disab": 3867,
      "resol": 3868,
      "flights": 3869,
      "medical": 3870,
      "##atory": 3871,
      "militia": 3872,
      "evac": 3873,
      "##ertain": 3874,
      "remember": 3875,
      "islamist": 3876,
      "surve": 3877,
      "memor": 3878,
      "hateful": 3879,
      "diplomats": 3880,
      "allowing": 3881,
      "blocked": 3882,
      "earth": 3883,
      "lebanons": 3884,
      "leaving": 3885,
      "glor": 3886,
      "##stead": 3887,
      "situation": 3888,
      "patrick": 3889,
      "july": 3890,
      "proposal": 3891,
      "dac": 3892,
      "dod": 3893,
      "lands": 3894,
      "rice": 3895,
      "side": 3896,
      "##wed": 3897,
      "##ried": 3898,
      "reop": 3899,
      "stock": 3900,
      "##ural": 3901,
      "##utiful": 3902,
      "##istle": 3903,
      "seven": 3904,
      "spl": 3905,
      "heck": 3906,
      "##ume": 3907,
      "prior": 3908,
      "anti": 3909,
      "appears": 3910,
      "marco": 3911,
      "##cker": 3912,
      "irans": 3913,
      "feb": 3914,
      "angel": 3915,
      "devast": 3916,
      "penns": 3917,
      "silence": 3918,
      "document": 3919,
      "safety": 3920,
      "##ylv": 3921,
      "italy": 3922,
      "establish": 3923,
      "pledges": 3924,
      "escal": 3925,
      "knew": 3926,
      "castro": 3927,
      "kicked": 3928,
      "beyon": 3929,
      "##ength": 3930,
      "lavrov": 3931,
      "domestic": 3932,
      "beautiful": 3933,
      "completely": 3934,
      "dialogue": 3935,
      "wisconsin": 3936,
      "aims": 3937,
      "card": 3938,
      "cbs": 3939,
      "din": 3940,
      "gow": 3941,
      "mays": 3942,
      "mach": 3943,
      "rhet": 3944,
      "tape": 3945,
      "wes": 3946,
      "wid": 3947,
      "witch": 3948,
      "wounded": 3949,
      "##nel": 3950,
      "##bed": 3951,
      "##iti": 3952,
      "true": 3953,
      "##rew": 3954,
      "##rog": 3955,
      "##elves": 3956,
      "store": 3957,
      "goog": 3958,
      "sues": 3959,
      "##ibly": 3960,
      "boo": 3961,
      "looms": 3962,
      "euro": 3963,
      "respect": 3964,
      "owners": 3965,
      "nominate": 3966,
      "nyt": 3967,
      "holds": 3968,
      "stein": 3969,
      "burn": 3970,
      "cuban": 3971,
      "standing": 3972,
      "views": 3973,
      "arab": 3974,
      "attempts": 3975,
      "cases": 3976,
      "pledge": 3977,
      "options": 3978,
      "including": 3979,
      "neighbor": 3980,
      "cathol": 3981,
      "tantrum": 3982,
      "brussels": 3983,
      "pennsylv": 3984,
      "rhetoric": 3985,
      "western": 3986,
      "actions": 3987,
      "gi": 3988,
      "hond": 3989,
      "ky": 3990,
      "ros": 3991,
      "tor": 3992,
      "va": 3993,
      "wage": 3994,
      "##rid": 3995,
      "##za": 3996,
      "##ering": 3997,
      "##iny": 3998,
      "##atives": 3999,
      "tower": 4000,
      "##iser": 4001,
      "instead": 4002,
      "##ashing": 4003,
      "##asons": 4004,
      "whistle": 4005,
      "share": 4006,
      "##resses": 4007,
      "##ression": 4008,
      "##oke": 4009,
      "backing": 4010,
      "minutes": 4011,
      "moving": 4012,
      "colbert": 4013,
      "park": 4014,
      "deplor": 4015,
      "epis": 4016,
      "##ollah": 4017,
      "descr": 4018,
      "legacy": 4019,
      "funded": 4020,
      "raq": 4021,
      "sla": 4022,
      "proposes": 4023,
      "paying": 4024,
      "everything": 4025,
      "rapist": 4026,
      "graham": 4027,
      "stephen": 4028,
      "handed": 4029,
      "restrict": 4030,
      "halt": 4031,
      "hammer": 4032,
      "coverage": 4033,
      "agreement": 4034,
      "career": 4035,
      "personal": 4036,
      "pulls": 4037,
      "clean": 4038,
      "suggest": 4039,
      "strateg": 4040,
      "##ructure": 4041,
      "enforcement": 4042,
      "couple": 4043,
      "gowdy": 4044,
      "giulian": 4045,
      "hondur": 4046,
      "dhs": 4047,
      "gors": 4048,
      "ka": 4049,
      "light": 4050,
      "mull": 4051,
      "pac": 4052,
      "rick": 4053,
      "sle": 4054,
      "ver": 4055,
      "##uro": 4056,
      "##iro": 4057,
      "##ipp": 4058,
      "##to": 4059,
      "##gu": 4060,
      "##erve": 4061,
      "##inking": 4062,
      "trey": 4063,
      "inst": 4064,
      "reasons": 4065,
      "##ented": 4066,
      "which": 4067,
      "##acked": 4068,
      "poland": 4069,
      "##uma": 4070,
      "##range": 4071,
      "expect": 4072,
      "banks": 4073,
      "killer": 4074,
      "turned": 4075,
      "cold": 4076,
      "among": 4077,
      "southern": 4078,
      "regional": 4079,
      "critical": 4080,
      "denoun": 4081,
      "behav": 4082,
      "promise": 4083,
      "communic": 4084,
      "devel": 4085,
      "viewers": 4086,
      "answers": 4087,
      "sweden": 4088,
      "differ": 4089,
      "honor": 4090,
      "supremacist": 4091,
      "increase": 4092,
      "housing": 4093,
      "herself": 4094,
      "daca": 4095,
      "episode": 4096,
      "gorsuch": 4097,
      "bos": 4098,
      "berkel": 4099,
      "cu": 4100,
      "cult": 4101,
      "costs": 4102,
      "huck": 4103,
      "kir": 4104,
      "mand": 4105,
      "mitt": 4106,
      "pip": 4107,
      "sons": 4108,
      "tack": 4109,
      "tight": 4110,
      "##uction": 4111,
      "##ica": 4112,
      "##iling": 4113,
      "##elect": 4114,
      "##illance": 4115,
      "##american": 4116,
      "thems": 4117,
      "stamp": 4118,
      "##ether": 4119,
      "##irc": 4120,
      "within": 4121,
      "project": 4122,
      "beating": 4123,
      "beij": 4124,
      "newt": 4125,
      "alert": 4126,
      "##iple": 4127,
      "discl": 4128,
      "disrupt": 4129,
      "##eme": 4130,
      "hamp": 4131,
      "boe": 4132,
      "youll": 4133,
      "refuse": 4134,
      "backf": 4135,
      "commander": 4136,
      "cannot": 4137,
      "marine": 4138,
      "##iots": 4139,
      "##loy": 4140,
      "shouldnt": 4141,
      "opposes": 4142,
      "decide": 4143,
      "awk": 4144,
      "knows": 4145,
      "retire": 4146,
      "discrim": 4147,
      "sexist": 4148,
      "needed": 4149,
      "irs": 4150,
      "critics": 4151,
      "israels": 4152,
      "patriot": 4153,
      "reject": 4154,
      "cancer": 4155,
      "canadas": 4156,
      "sharia": 4157,
      "rioters": 4158,
      "trolls": 4159,
      "waiting": 4160,
      "indonesia": 4161,
      "linked": 4162,
      "ratings": 4163,
      "scotus": 4164,
      "hawai": 4165,
      "fcking": 4166,
      "fellow": 4167,
      "exactly": 4168,
      "chemical": 4169,
      "surveillance": 4170,
      "google": 4171,
      "pennsylvania": 4172,
      "raqqa": 4173,
      "berkeley": 4174,
      "themselves": 4175,
      "era": 4176,
      "eight": 4177,
      "kansas": 4178,
      "pap": 4179,
      "tpp": 4180,
      "##poen": 4181,
      "##bat": 4182,
      "##bar": 4183,
      "##inate": 4184,
      "trumpcare": 4185,
      "##lement": 4186,
      "##ada": 4187,
      "chant": 4188,
      "##see": 4189,
      "##iebus": 4190,
      "spread": 4191,
      "##umm": 4192,
      "enem": 4193,
      "disapp": 4194,
      "brid": 4195,
      "brib": 4196,
      "warned": 4197,
      "priebus": 4198,
      "flight": 4199,
      "guests": 4200,
      "judges": 4201,
      "becomes": 4202,
      "speaking": 4203,
      "oppon": 4204,
      "advice": 4205,
      "swiss": 4206,
      "susan": 4207,
      "opening": 4208,
      "incred": 4209,
      "belg": 4210,
      "funny": 4211,
      "austrian": 4212,
      "shutdown": 4213,
      "haley": 4214,
      "subpoen": 4215,
      "removed": 4216,
      "contract": 4217,
      "easy": 4218,
      "following": 4219,
      "custom": 4220,
      "vacation": 4221,
      "powers": 4222,
      "comedian": 4223,
      "judicial": 4224,
      "karma": 4225,
      "unlikely": 4226,
      "zealand": 4227,
      "reagan": 4228,
      "december": 4229,
      "trigger": 4230,
      "witness": 4231,
      "breitbart": 4232,
      "glorious": 4233,
      "kaep": 4234,
      "beijing": 4235,
      "der": 4236,
      "esp": 4237,
      "gm": 4238,
      "gender": 4239,
      "lun": 4240,
      "links": 4241,
      "ton": 4242,
      "tear": 4243,
      "yes": 4244,
      "##lers": 4245,
      "##will": 4246,
      "##where": 4247,
      "##ucc": 4248,
      "##aur": 4249,
      "##gers": 4250,
      "##ract": 4251,
      "##icious": 4252,
      "inn": 4253,
      "trumprussia": 4254,
      "##vert": 4255,
      "cong": 4256,
      "##unk": 4257,
      "##unity": 4258,
      "unbel": 4259,
      "##allies": 4260,
      "##ounder": 4261,
      "plant": 4262,
      "william": 4263,
      "exposing": 4264,
      "having": 4265,
      "confident": 4266,
      "assange": 4267,
      "##ropri": 4268,
      "##gether": 4269,
      "##azis": 4270,
      "design": 4271,
      "drone": 4272,
      "discover": 4273,
      "runs": 4274,
      "facing": 4275,
      "effect": 4276,
      "happens": 4277,
      "begins": 4278,
      "brilliantly": 4279,
      "laughing": 4280,
      "##udeau": 4281,
      "limit": 4282,
      "stealing": 4283,
      "several": 4284,
      "commerce": 4285,
      "torture": 4286,
      "underst": 4287,
      "chelsea": 4288,
      "memorial": 4289,
      "dinner": 4290,
      "develop": 4291,
      "cuom": 4292,
      "unbeliev": 4293,
      "bod": 4294,
      "dark": 4295,
      "fd": 4296,
      "fat": 4297,
      "song": 4298,
      "solution": 4299,
      "tests": 4300,
      "wre": 4301,
      "wake": 4302,
      "wood": 4303,
      "##ux": 4304,
      "##iary": 4305,
      "##mb": 4306,
      "tow": 4307,
      "together": 4308,
      "trudeau": 4309,
      "thai": 4310,
      "##asion": 4311,
      "##illion": 4312,
      "##lead": 4313,
      "##akene": 4314,
      "##andon": 4315,
      "asse": 4316,
      "hey": 4317,
      "blows": 4318,
      "##ifies": 4319,
      "##artisan": 4320,
      "worth": 4321,
      "works": 4322,
      "joint": 4323,
      "wasnt": 4324,
      "quake": 4325,
      "##cla": 4326,
      "speed": 4327,
      "##fully": 4328,
      "hacks": 4329,
      "postp": 4330,
      "few": 4331,
      "franc": 4332,
      "proposed": 4333,
      "keeps": 4334,
      "grab": 4335,
      "approval": 4336,
      "happy": 4337,
      "happen": 4338,
      "failure": 4339,
      "targeted": 4340,
      "prosecutors": 4341,
      "walk": 4342,
      "welcomes": 4343,
      "cooper": 4344,
      "dreamers": 4345,
      "medicaid": 4346,
      "disabled": 4347,
      "giuliani": 4348,
      "awkward": 4349,
      "##akenews": 4350,
      "bon": 4351,
      "fant": 4352,
      "hang": 4353,
      "lgbt": 4354,
      "ousted": 4355,
      "osc": 4356,
      "vill": 4357,
      "##ez": 4358,
      "##gar": 4359,
      "##bab": 4360,
      "thro": 4361,
      "videot": 4362,
      "online": 4363,
      "whose": 4364,
      "whines": 4365,
      "##etta": 4366,
      "##very": 4367,
      "congo": 4368,
      "##under": 4369,
      "und": 4370,
      "blocking": 4371,
      "##apse": 4372,
      "##ipt": 4373,
      "##athy": 4374,
      "racial": 4375,
      "racists": 4376,
      "rachel": 4377,
      "evil": 4378,
      "compares": 4379,
      "putting": 4380,
      "politico": 4381,
      "remains": 4382,
      "insp": 4383,
      "mission": 4384,
      "missiles": 4385,
      "regrets": 4386,
      "surr": 4387,
      "burns": 4388,
      "restaur": 4389,
      "collapse": 4390,
      "claiming": 4391,
      "rebu": 4392,
      "curb": 4393,
      "babies": 4394,
      "apologizes": 4395,
      "status": 4396,
      "replacement": 4397,
      "fighters": 4398,
      "floor": 4399,
      "teachers": 4400,
      "##zbollah": 4401,
      "cuomo": 4402,
      "jay": 4403,
      "page": 4404,
      "sam": 4405,
      "site": 4406,
      "sant": 4407,
      "##ef": 4408,
      "##form": 4409,
      "toll": 4410,
      "##urday": 4411,
      "whether": 4412,
      "##resident": 4413,
      "ship": 4414,
      "const": 4415,
      "lee": 4416,
      "space": 4417,
      "hezbollah": 4418,
      "##essed": 4419,
      "worried": 4420,
      "warming": 4421,
      "dog": 4422,
      "##oking": 4423,
      "##aves": 4424,
      "muse": 4425,
      "acting": 4426,
      "accord": 4427,
      "##heres": 4428,
      "worked": 4429,
      "##quir": 4430,
      "couldnt": 4431,
      "airlines": 4432,
      "swing": 4433,
      "##insula": 4434,
      "brag": 4435,
      "brags": 4436,
      "jew": 4437,
      "kidding": 4438,
      "extra": 4439,
      "##sht": 4440,
      "bombing": 4441,
      "myanmars": 4442,
      "perform": 4443,
      "businesses": 4444,
      "independent": 4445,
      "soldier": 4446,
      "peninsula": 4447,
      "maddow": 4448,
      "apology": 4449,
      "complete": 4450,
      "brazils": 4451,
      "create": 4452,
      "coward": 4453,
      "##nesday": 4454,
      "saturday": 4455,
      "display": 4456,
      "wednesday": 4457,
      "jackson": 4458,
      "rigged": 4459,
      "fergus": 4460,
      "whistlebl": 4461,
      "behavior": 4462,
      "kirk": 4463,
      "kaepern": 4464,
      "bip": 4465,
      "fa": 4466,
      "kimm": 4467,
      "lind": 4468,
      "nine": 4469,
      "rallies": 4470,
      "wish": 4471,
      "welf": 4472,
      "##la": 4473,
      "##eated": 4474,
      "##gra": 4475,
      "##rast": 4476,
      "##eds": 4477,
      "##reg": 4478,
      "revers": 4479,
      "##amucc": 4480,
      "usbacked": 4481,
      "sure": 4482,
      "spent": 4483,
      "blo": 4484,
      "demon": 4485,
      "##abee": 4486,
      "disgr": 4487,
      "warrant": 4488,
      "scor": 4489,
      "doz": 4490,
      "imag": 4491,
      "course": 4492,
      "color": 4493,
      "impact": 4494,
      "register": 4495,
      "infrast": 4496,
      "brave": 4497,
      "veh": 4498,
      "raped": 4499,
      "announce": 4500,
      "population": 4501,
      "bombers": 4502,
      "playing": 4503,
      "kenyan": 4504,
      "citizenship": 4505,
      "ballistic": 4506,
      "selling": 4507,
      "withdrawal": 4508,
      "scaramucc": 4509,
      "briefing": 4510,
      "hiding": 4511,
      "hungary": 4512,
      "measures": 4513,
      "surviv": 4514,
      "jesus": 4515,
      "crybab": 4516,
      "mexicos": 4517,
      "sharpton": 4518,
      "snowfl": 4519,
      "immediately": 4520,
      "establishment": 4521,
      "huckabee": 4522,
      "pipeline": 4523,
      "innoc": 4524,
      "bipartisan": 4525,
      "welfare": 4526,
      "infrastructure": 4527,
      "bash": 4528,
      "fig": 4529,
      "fine": 4530,
      "jord": 4531,
      "mocking": 4532,
      "ross": 4533,
      "ty": 4534,
      "ul": 4535,
      "wear": 4536,
      "wast": 4537,
      "##lah": 4538,
      "##iel": 4539,
      "##dad": 4540,
      "##nic": 4541,
      "##run": 4542,
      "##ront": 4543,
      "##fri": 4544,
      "##armed": 4545,
      "##ouse": 4546,
      "theory": 4547,
      "dear": 4548,
      "##oma": 4549,
      "anc": 4550,
      "stands": 4551,
      "obl": 4552,
      "club": 4553,
      "closer": 4554,
      "uns": 4555,
      "sports": 4556,
      "disag": 4557,
      "ups": 4558,
      "expose": 4559,
      "ministers": 4560,
      "consumer": 4561,
      "congresswoman": 4562,
      "quot": 4563,
      "strength": 4564,
      "recru": 4565,
      "illegally": 4566,
      "underm": 4567,
      "legend": 4568,
      "delet": 4569,
      "correct": 4570,
      "investigate": 4571,
      "investigating": 4572,
      "explodes": 4573,
      "signals": 4574,
      "brown": 4575,
      "brain": 4576,
      "deaths": 4577,
      "discussed": 4578,
      "protesting": 4579,
      "writer": 4580,
      "editor": 4581,
      "lebanese": 4582,
      "maine": 4583,
      "camera": 4584,
      "singap": 4585,
      "italys": 4586,
      "accusations": 4587,
      "oklah": 4588,
      "tempor": 4589,
      "impeachment": 4590,
      "promote": 4591,
      "interference": 4592,
      "environmental": 4593,
      "ferguson": 4594,
      "oklahoma": 4595,
      "cze": 4596,
      "circ": 4597,
      "field": 4598,
      "gift": 4599,
      "jump": 4600,
      "lad": 4601,
      "pension": 4602,
      "rather": 4603,
      "riot": 4604,
      "sides": 4605,
      "zuma": 4606,
      "##oy": 4607,
      "##win": 4608,
      "##now": 4609,
      "##aed": 4610,
      "##ror": 4611,
      "##ital": 4612,
      "##idel": 4613,
      "##uster": 4614,
      "##uslim": 4615,
      "##ched": 4616,
      "shout": 4617,
      "##irt": 4618,
      "anderson": 4619,
      "##sey": 4620,
      "##ulate": 4621,
      "##ivals": 4622,
      "abandon": 4623,
      "cap": 4624,
      "##aging": 4625,
      "colum": 4626,
      "interior": 4627,
      "detains": 4628,
      "##ault": 4629,
      "harv": 4630,
      "nomine": 4631,
      "cruzs": 4632,
      "openly": 4633,
      "##board": 4634,
      "property": 4635,
      "suspects": 4636,
      "migration": 4637,
      "sentences": 4638,
      "privile": 4639,
      "homes": 4640,
      "rebel": 4641,
      "staffer": 4642,
      "kurdistan": 4643,
      "damage": 4644,
      "prisoners": 4645,
      "divis": 4646,
      "article": 4647,
      "affair": 4648,
      "ignores": 4649,
      "horrific": 4650,
      "growth": 4651,
      "magaz": 4652,
      "bully": 4653,
      "assassination": 4654,
      "ugly": 4655,
      "dismisses": 4656,
      "split": 4657,
      "describ": 4658,
      "williams": 4659,
      "francis": 4660,
      "czech": 4661,
      "dress": 4662,
      "gulf": 4663,
      "hed": 4664,
      "mention": 4665,
      "paper": 4666,
      "zone": 4667,
      "##law": 4668,
      "##war": 4669,
      "##har": 4670,
      "##be": 4671,
      "##atic": 4672,
      "trail": 4673,
      "##oud": 4674,
      "##oura": 4675,
      "stol": 4676,
      "stick": 4677,
      "##vember": 4678,
      "##iring": 4679,
      "suff": 4680,
      "spains": 4681,
      "##alled": 4682,
      "exch": 4683,
      "##str": 4684,
      "##iana": 4685,
      "##ells": 4686,
      "resolution": 4687,
      "scient": 4688,
      "music": 4689,
      "##itional": 4690,
      "gops": 4691,
      "accounts": 4692,
      "winner": 4693,
      "##enced": 4694,
      "operation": 4695,
      "chiefs": 4696,
      "##aza": 4697,
      "decades": 4698,
      "drills": 4699,
      "hackers": 4700,
      "explode": 4701,
      "propose": 4702,
      "payments": 4703,
      "someone": 4704,
      "player": 4705,
      "serve": 4706,
      "listen": 4707,
      "approve": 4708,
      "diplomacy": 4709,
      "believes": 4710,
      "submar": 4711,
      "holding": 4712,
      "spokeswoman": 4713,
      "screening": 4714,
      "further": 4715,
      "emerges": 4716,
      "regulations": 4717,
      "appointed": 4718,
      "beaten": 4719,
      "problems": 4720,
      "seriously": 4721,
      "deported": 4722,
      "shocked": 4723,
      "supremacists": 4724,
      "captures": 4725,
      "unveils": 4726,
      "lobby": 4727,
      "multiple": 4728,
      "wealthy": 4729,
      "creepy": 4730,
      "catholic": 4731,
      "bridge": 4732,
      "restaurant": 4733,
      "##friend": 4734,
      "ak": 4735,
      "bol": 4736,
      "cens": 4737,
      "diversity": 4738,
      "fb": 4739,
      "ho": 4740,
      "ice": 4741,
      "ml": 4742,
      "myster": 4743,
      "pig": 4744,
      "ron": 4745,
      "simp": 4746,
      "vow": 4747,
      "##ober": 4748,
      "##watch": 4749,
      "##craft": 4750,
      "##df": 4751,
      "##east": 4752,
      "##hdad": 4753,
      "##ero": 4754,
      "##icop": 4755,
      "##ases": 4756,
      "##lets": 4757,
      "anger": 4758,
      "stir": 4759,
      "##uted": 4760,
      "shares": 4761,
      "neil": 4762,
      "alz": 4763,
      "alive": 4764,
      "also": 4765,
      "plays": 4766,
      "willing": 4767,
      "##rated": 4768,
      "billions": 4769,
      "##apol": 4770,
      "lawless": 4771,
      "resume": 4772,
      "doctor": 4773,
      "minim": 4774,
      "mooch": 4775,
      "apple": 4776,
      "carri": 4777,
      "accomp": 4778,
      "ending": 4779,
      "helicop": 4780,
      "impro": 4781,
      "investment": 4782,
      "swamp": 4783,
      "retali": 4784,
      "deadline": 4785,
      "incident": 4786,
      "##iamerican": 4787,
      "latino": 4788,
      "ordered": 4789,
      "keeping": 4790,
      "patrol": 4791,
      "convicted": 4792,
      "divided": 4793,
      "clears": 4794,
      "drugs": 4795,
      "falls": 4796,
      "appoint": 4797,
      "limits": 4798,
      "govt": 4799,
      "organization": 4800,
      "excuse": 4801,
      "nigeria": 4802,
      "indonesian": 4803,
      "rescue": 4804,
      "prevent": 4805,
      "football": 4806,
      "cease": 4807,
      "september": 4808,
      "hawaii": 4809,
      "kirkuk": 4810,
      "kimmel": 4811,
      "nominees": 4812,
      "came": 4813,
      "fres": 4814,
      "gains": 4815,
      "jim": 4816,
      "jake": 4817,
      "jong": 4818,
      "julian": 4819,
      "kat": 4820,
      "kicks": 4821,
      "lor": 4822,
      "loser": 4823,
      "occ": 4824,
      "tx": 4825,
      "ten": 4826,
      "##wide": 4827,
      "##wait": 4828,
      "##ipping": 4829,
      "##no": 4830,
      "##yle": 4831,
      "##veland": 4832,
      "##erem": 4833,
      "##inated": 4834,
      "reince": 4835,
      "##amas": 4836,
      "##utions": 4837,
      "island": 4838,
      "seal": 4839,
      "##ivid": 4840,
      "lah": 4841,
      "##antly": 4842,
      "donor": 4843,
      "resist": 4844,
      "whoop": 4845,
      "boys": 4846,
      "##okes": 4847,
      "november": 4848,
      "antiamerican": 4849,
      "considers": 4850,
      "##rupts": 4851,
      "confron": 4852,
      "visas": 4853,
      "delus": 4854,
      "delays": 4855,
      "owned": 4856,
      "famous": 4857,
      "kidna": 4858,
      "##shire": 4859,
      "austrias": 4860,
      "allegedly": 4861,
      "started": 4862,
      "canadian": 4863,
      "maduro": 4864,
      "film": 4865,
      "ballot": 4866,
      "offered": 4867,
      "sickening": 4868,
      "wiret": 4869,
      "wireta": 4870,
      "statue": 4871,
      "cleveland": 4872,
      "risks": 4873,
      "antigay": 4874,
      "antigun": 4875,
      "deportation": 4876,
      "largest": 4877,
      "brotherhood": 4878,
      "bullsht": 4879,
      "beyond": 4880,
      "broadc": 4881,
      "separat": 4882,
      "baghdad": 4883,
      "neighborhood": 4884,
      "hampshire": 4885,
      "retirement": 4886,
      "gmt": 4887,
      "congrat": 4888,
      "singapore": 4889,
      "confronts": 4890,
      "coul": 4891,
      "dut": 4892,
      "date": 4893,
      "equ": 4894,
      "fast": 4895,
      "founder": 4896,
      "git": 4897,
      "hong": 4898,
      "hires": 4899,
      "kiss": 4900,
      "kong": 4901,
      "kaine": 4902,
      "lack": 4903,
      "lower": 4904,
      "mer": 4905,
      "nh": 4906,
      "tele": 4907,
      "taps": 4908,
      "vat": 4909,
      "vile": 4910,
      "##ios": 4911,
      "##aa": 4912,
      "##aio": 4913,
      "##rad": 4914,
      "##ints": 4915,
      "##inent": 4916,
      "##aration": 4917,
      "track": 4918,
      "thail": 4919,
      "inquir": 4920,
      "shift": 4921,
      "subs": 4922,
      "abd": 4923,
      "aggress": 4924,
      "##elled": 4925,
      "coh": 4926,
      "whole": 4927,
      "refused": 4928,
      "emot": 4929,
      "common": 4930,
      "colin": 4931,
      "detention": 4932,
      "secretly": 4933,
      "soft": 4934,
      "becoming": 4935,
      "oppose": 4936,
      "presses": 4937,
      "drill": 4938,
      "##ucky": 4939,
      "smack": 4940,
      "smith": 4941,
      "jets": 4942,
      "socialism": 4943,
      "vets": 4944,
      "holy": 4945,
      "buil": 4946,
      "advisers": 4947,
      "later": 4948,
      "flags": 4949,
      "drag": 4950,
      "revolution": 4951,
      "declaration": 4952,
      "japanese": 4953,
      "privacy": 4954,
      "outraged": 4955,
      "argument": 4956,
      "egyptian": 4957,
      "italian": 4958,
      "provide": 4959,
      "based": 4960,
      "tomi": 4961,
      "juncker": 4962,
      "oversight": 4963,
      "pleads": 4964,
      "dictator": 4965,
      "sleep": 4966,
      "understand": 4967,
      "unbelievable": 4968,
      "lindsey": 4969,
      "harvard": 4970,
      "loretta": 4971,
      "coulter": 4972,
      "gitmo": 4973,
      "vatican": 4974,
      "bald": 4975,
      "cerem": 4976,
      "finger": 4977,
      "games": 4978,
      "jill": 4979,
      "mr": 4980,
      "mont": 4981,
      "male": 4982,
      "pod": 4983,
      "pss": 4984,
      "uran": 4985,
      "zero": 4986,
      "##ov": 4987,
      "##dem": 4988,
      "##mart": 4989,
      "##keep": 4990,
      "##aries": 4991,
      "rein": 4992,
      "##ently": 4993,
      "deir": 4994,
      "##akh": 4995,
      "chilling": 4996,
      "##thy": 4997,
      "##unt": 4998,
      "asian": 4999,
      "spd": 5000,
      "abort": 5001,
      "alm": 5002,
      "means": 5003,
      "presidentelect": 5004,
      "disney": 5005,
      "worry": 5006,
      "brand": 5007,
      "princ": 5008,
      "boat": 5009,
      "tapper": 5010,
      "area": 5011,
      "##athing": 5012,
      "liber": 5013,
      "cars": 5014,
      "parts": 5015,
      "assist": 5016,
      "reminds": 5017,
      "implement": 5018,
      "iraqs": 5019,
      "anything": 5020,
      "##shed": 5021,
      "treason": 5022,
      "grave": 5023,
      "##white": 5024,
      "services": 5025,
      "stunned": 5026,
      "empty": 5027,
      "venezuelan": 5028,
      "staffers": 5029,
      "summ": 5030,
      "egypts": 5031,
      "laughs": 5032,
      "predator": 5033,
      "amazon": 5034,
      "preparing": 5035,
      "baseball": 5036,
      "directly": 5037,
      "temper": 5038,
      "patriots": 5039,
      "celebrate": 5040,
      "judiciary": 5041,
      "mistake": 5042,
      "minority": 5043,
      "explosion": 5044,
      "martin": 5045,
      "package": 5046,
      "piece": 5047,
      "##ropriate": 5048,
      "bloom": 5049,
      "crybaby": 5050,
      "stolen": 5051,
      "alzor": 5052,
      "##apolit": 5053,
      "ceasefire": 5054,
      "delusional": 5055,
      "uranium": 5056,
      "age": 5057,
      "born": 5058,
      "died": 5059,
      "fasc": 5060,
      "kind": 5061,
      "mans": 5062,
      "merk": 5063,
      "misc": 5064,
      "neo": 5065,
      "napolit": 5066,
      "pers": 5067,
      "piss": 5068,
      "purs": 5069,
      "pushing": 5070,
      "rip": 5071,
      "sac": 5072,
      "tied": 5073,
      "tsh": 5074,
      "ww": 5075,
      "yikes": 5076,
      "##lant": 5077,
      "##ua": 5078,
      "##calls": 5079,
      "##ii": 5080,
      "##ev": 5081,
      "##ties": 5082,
      "##rens": 5083,
      "##more": 5084,
      "##alty": 5085,
      "##isem": 5086,
      "##outs": 5087,
      "##road": 5088,
      "##ado": 5089,
      "##cepts": 5090,
      "suit": 5091,
      "spend": 5092,
      "alt": 5093,
      "capit": 5094,
      "arrog": 5095,
      "ens": 5096,
      "wars": 5097,
      "##astic": 5098,
      "refusing": 5099,
      "alliance": 5100,
      "minnes": 5101,
      "antim": 5102,
      "turning": 5103,
      "maria": 5104,
      "ifax": 5105,
      "invited": 5106,
      "indict": 5107,
      "confront": 5108,
      "scheme": 5109,
      "detail": 5110,
      "lefty": 5111,
      "insul": 5112,
      "aircraft": 5113,
      "known": 5114,
      "##ilians": 5115,
      "hostage": 5116,
      "slow": 5117,
      "embr": 5118,
      "jews": 5119,
      "##while": 5120,
      "handle": 5121,
      "reven": 5122,
      "declines": 5123,
      "conduct": 5124,
      "poison": 5125,
      "keny": 5126,
      "embarrasses": 5127,
      "##ermans": 5128,
      "model": 5129,
      "##obama": 5130,
      "doubles": 5131,
      "tension": 5132,
      "okay": 5133,
      "progressive": 5134,
      "casual": 5135,
      "dollar": 5136,
      "religion": 5137,
      "kneel": 5138,
      "comedy": 5139,
      "fighter": 5140,
      "mental": 5141,
      "positive": 5142,
      "pretty": 5143,
      "fundraiser": 5144,
      "##quality": 5145,
      "colombia": 5146,
      "october": 5147,
      "slavery": 5148,
      "strategist": 5149,
      "museum": 5150,
      "dozens": 5151,
      "scaramucci": 5152,
      "submarine": 5153,
      "fresh": 5154,
      "inquiry": 5155,
      "merkels": 5156,
      "napolitano": 5157,
      "minnesota": 5158,
      "bik": 5159,
      "cart": 5160,
      "dak": 5161,
      "fest": 5162,
      "grop": 5163,
      "gaza": 5164,
      "nj": 5165,
      "pa": 5166,
      "psy": 5167,
      "rou": 5168,
      "ripped": 5169,
      "sending": 5170,
      "tick": 5171,
      "ways": 5172,
      "##yers": 5173,
      "##year": 5174,
      "##hole": 5175,
      "##bie": 5176,
      "##bian": 5177,
      "##rons": 5178,
      "##kes": 5179,
      "##inos": 5180,
      "trillion": 5181,
      "##reach": 5182,
      "##acing": 5183,
      "stops": 5184,
      "##adem": 5185,
      "##osure": 5186,
      "shad": 5187,
      "nev": 5188,
      "clashes": 5189,
      "unit": 5190,
      "unle": 5191,
      "spar": 5192,
      "##opoul": 5193,
      "##ables": 5194,
      "##apes": 5195,
      "##rank": 5196,
      "result": 5197,
      "scathing": 5198,
      "prize": 5199,
      "hav": 5200,
      "medi": 5201,
      "allows": 5202,
      "antih": 5203,
      "moon": 5204,
      "##issions": 5205,
      "liberty": 5206,
      "actual": 5207,
      "invasion": 5208,
      "contest": 5209,
      "parade": 5210,
      "reported": 5211,
      "advoc": 5212,
      "sexually": 5213,
      "huma": 5214,
      "feud": 5215,
      "suspended": 5216,
      "snap": 5217,
      "concert": 5218,
      "else": 5219,
      "nears": 5220,
      "assaulted": 5221,
      "coverup": 5222,
      "removal": 5223,
      "madrid": 5224,
      "civilians": 5225,
      "ethnic": 5226,
      "praise": 5227,
      "##black": 5228,
      "daughters": 5229,
      "authorities": 5230,
      "keith": 5231,
      "june": 5232,
      "charlotte": 5233,
      "powell": 5234,
      "controversy": 5235,
      "ceiling": 5236,
      "appearance": 5237,
      "birthday": 5238,
      "bowl": 5239,
      "encoura": 5240,
      "devastating": 5241,
      "communications": 5242,
      "backfires": 5243,
      "jewish": 5244,
      "whistleblower": 5245,
      "faith": 5246,
      "innocent": 5247,
      "jordan": 5248,
      "column": 5249,
      "magazine": 5250,
      "minimum": 5251,
      "lahren": 5252,
      "emotional": 5253,
      "baldwin": 5254,
      "az": 5255,
      "aug": 5256,
      "ble": 5257,
      "bio": 5258,
      "corn": 5259,
      "ded": 5260,
      "erupts": 5261,
      "fool": 5262,
      "fisc": 5263,
      "gab": 5264,
      "hired": 5265,
      "jared": 5266,
      "khan": 5267,
      "nice": 5268,
      "nazis": 5269,
      "pard": 5270,
      "porn": 5271,
      "rare": 5272,
      "sim": 5273,
      "sand": 5274,
      "tan": 5275,
      "ws": 5276,
      "##uf": 5277,
      "##pd": 5278,
      "##mits": 5279,
      "##mouth": 5280,
      "##xic": 5281,
      "##erms": 5282,
      "toler": 5283,
      "toxic": 5284,
      "##itation": 5285,
      "##icals": 5286,
      "##ilat": 5287,
      "##ilton": 5288,
      "##asse": 5289,
      "whites": 5290,
      "chec": 5291,
      "##they": 5292,
      "prosp": 5293,
      "##oci": 5294,
      "seg": 5295,
      "clock": 5296,
      "lear": 5297,
      "spons": 5298,
      "able": 5299,
      "coff": 5300,
      "resear": 5301,
      "pract": 5302,
      "proud": 5303,
      "showed": 5304,
      "campaigns": 5305,
      "queen": 5306,
      "carter": 5307,
      "contacts": 5308,
      "probably": 5309,
      "sched": 5310,
      "county": 5311,
      "politician": 5312,
      "wouldnt": 5313,
      "thank": 5314,
      "insults": 5315,
      "knock": 5316,
      "panic": 5317,
      "idlib": 5318,
      "denied": 5319,
      "edt": 5320,
      "devos": 5321,
      "targeting": 5322,
      "sorry": 5323,
      "regulation": 5324,
      "appoints": 5325,
      "difference": 5326,
      "large": 5327,
      "received": 5328,
      "##covered": 5329,
      "greece": 5330,
      "jesse": 5331,
      "alec": 5332,
      "skept": 5333,
      "analy": 5334,
      "obstruction": 5335,
      "introduce": 5336,
      "saudis": 5337,
      "employee": 5338,
      "trouble": 5339,
      "pedoph": 5340,
      "bodies": 5341,
      "wreck": 5342,
      "carrier": 5343,
      "helicopter": 5344,
      "capitol": 5345,
      "wsj": 5346,
      "research": 5347,
      "dines": 5348,
      "hij": 5349,
      "ku": 5350,
      "kathy": 5351,
      "les": 5352,
      "limb": 5353,
      "lux": 5354,
      "named": 5355,
      "os": 5356,
      "ouch": 5357,
      "pir": 5358,
      "prem": 5359,
      "qaed": 5360,
      "sad": 5361,
      "terms": 5362,
      "wolf": 5363,
      "##hold": 5364,
      "##gen": 5365,
      "##gling": 5366,
      "##inlaw": 5367,
      "##ila": 5368,
      "##asing": 5369,
      "##tsy": 5370,
      "forget": 5371,
      "users": 5372,
      "##ching": 5373,
      "champ": 5374,
      "##verty": 5375,
      "cluel": 5376,
      "closed": 5377,
      "repeated": 5378,
      "agit": 5379,
      "cruc": 5380,
      "meg": 5381,
      "caused": 5382,
      "##iban": 5383,
      "coord": 5384,
      "##ems": 5385,
      "science": 5386,
      "priest": 5387,
      "youth": 5388,
      "defic": 5389,
      "manuf": 5390,
      "##berts": 5391,
      "appar": 5392,
      "quiet": 5393,
      "meetings": 5394,
      "phil": 5395,
      "phys": 5396,
      "associ": 5397,
      "politicians": 5398,
      "southeast": 5399,
      "##maker": 5400,
      "sworn": 5401,
      "##uzz": 5402,
      "matthe": 5403,
      "ramp": 5404,
      "##oint": 5405,
      "smug": 5406,
      "worlds": 5407,
      "##kets": 5408,
      "colleges": 5409,
      "danish": 5410,
      "macrons": 5411,
      "poverty": 5412,
      "ignore": 5413,
      "londons": 5414,
      "doubt": 5415,
      "systems": 5416,
      "demanding": 5417,
      "responsibility": 5418,
      "davis": 5419,
      "mocked": 5420,
      "uncertain": 5421,
      "##burg": 5422,
      "created": 5423,
      "##ascus": 5424,
      "argentina": 5425,
      "unpre": 5426,
      "greek": 5427,
      "lewis": 5428,
      "benefits": 5429,
      "introduc": 5430,
      "motor": 5431,
      "struggles": 5432,
      "purge": 5433,
      "##holds": 5434,
      "tunis": 5435,
      "traffic": 5436,
      "louisiana": 5437,
      "recognize": 5438,
      "resolve": 5439,
      "evacu": 5440,
      "restrictions": 5441,
      "boston": 5442,
      "boeing": 5443,
      "kaepernick": 5444,
      "ult": 5445,
      "privilege": 5446,
      "fbis": 5447,
      "congratul": 5448,
      "ceremony": 5449,
      "bloomberg": 5450,
      "nevada": 5451,
      "clueless": 5452,
      "manufact": 5453,
      "ath": 5454,
      "dying": 5455,
      "eat": 5456,
      "fcc": 5457,
      "fights": 5458,
      "hike": 5459,
      "koch": 5460,
      "los": 5461,
      "mol": 5462,
      "mouth": 5463,
      "nun": 5464,
      "rage": 5465,
      "rival": 5466,
      "rivals": 5467,
      "sister": 5468,
      "slo": 5469,
      "tenn": 5470,
      "vul": 5471,
      "##lan": 5472,
      "##wl": 5473,
      "##well": 5474,
      "##pac": 5475,
      "##hating": 5476,
      "##house": 5477,
      "##ko": 5478,
      "##fer": 5479,
      "##fort": 5480,
      "##erly": 5481,
      "##inas": 5482,
      "##anam": 5483,
      "trashes": 5484,
      "##acle": 5485,
      "##rote": 5486,
      "##ament": 5487,
      "anarch": 5488,
      "conse": 5489,
      "promp": 5490,
      "uncon": 5491,
      "spir": 5492,
      "heav": 5493,
      "along": 5494,
      "##elling": 5495,
      "crashes": 5496,
      "##antanam": 5497,
      "hissy": 5498,
      "arch": 5499,
      "adop": 5500,
      "##ipe": 5501,
      "##ously": 5502,
      "reset": 5503,
      "flat": 5504,
      "areas": 5505,
      "text": 5506,
      "weird": 5507,
      "grant": 5508,
      "antisem": 5509,
      "manip": 5510,
      "##issipp": 5511,
      "terrifying": 5512,
      "maral": 5513,
      "taliban": 5514,
      "qual": 5515,
      "loy": 5516,
      "accuse": 5517,
      "invites": 5518,
      "comprom": 5519,
      "millenn": 5520,
      "peru": 5521,
      "##quences": 5522,
      "bigger": 5523,
      "##gery": 5524,
      "knife": 5525,
      "mississipp": 5526,
      "rapper": 5527,
      "tweeting": 5528,
      "citing": 5529,
      "franken": 5530,
      "brothers": 5531,
      "##ointed": 5532,
      "payment": 5533,
      "incomp": 5534,
      "deny": 5535,
      "behar": 5536,
      "slammed": 5537,
      "##angu": 5538,
      "##cedented": 5539,
      "ambush": 5540,
      "kenned": 5541,
      "sky": 5542,
      "considered": 5543,
      "artist": 5544,
      "ignoring": 5545,
      "pakistani": 5546,
      "horrible": 5547,
      "growing": 5548,
      "palestinians": 5549,
      "honest": 5550,
      "kept": 5551,
      "operations": 5552,
      "##iety": 5553,
      "dumbest": 5554,
      "proposals": 5555,
      "argentine": 5556,
      "mentally": 5557,
      "favorite": 5558,
      "measure": 5559,
      "arrives": 5560,
      "level": 5561,
      "delegates": 5562,
      "publishes": 5563,
      "labour": 5564,
      "deplorable": 5565,
      "different": 5566,
      "discrimination": 5567,
      "wiretap": 5568,
      "dutch": 5569,
      "dakota": 5570,
      "##opoulos": 5571,
      "fiscal": 5572,
      "consequences": 5573,
      "##antanamo": 5574,
      "millennial": 5575,
      "bump": 5576,
      "bah": 5577,
      "ds": 5578,
      "fior": 5579,
      "fakenews": 5580,
      "ga": 5581,
      "gag": 5582,
      "hide": 5583,
      "lame": 5584,
      "mine": 5585,
      "nd": 5586,
      "rud": 5587,
      "round": 5588,
      "rises": 5589,
      "uae": 5590,
      "via": 5591,
      "vicious": 5592,
      "wi": 5593,
      "##light": 5594,
      "##wart": 5595,
      "##ports": 5596,
      "##eb": 5597,
      "##vin": 5598,
      "##vel": 5599,
      "##ba": 5600,
      "##bucks": 5601,
      "##ris": 5602,
      "##min": 5603,
      "##eric": 5604,
      "##erates": 5605,
      "##ories": 5606,
      "##icip": 5607,
      "##left": 5608,
      "##oween": 5609,
      "##check": 5610,
      "##irts": 5611,
      "proj": 5612,
      "betsy": 5613,
      "lect": 5614,
      "univ": 5615,
      "uncovered": 5616,
      "abroad": 5617,
      "blm": 5618,
      "lapt": 5619,
      "alarm": 5620,
      "watching": 5621,
      "outreach": 5622,
      "warn": 5623,
      "secure": 5624,
      "hair": 5625,
      "##ished": 5626,
      "jokes": 5627,
      "##ption": 5628,
      "tea": 5629,
      "banking": 5630,
      "partners": 5631,
      "terrible": 5632,
      "confidence": 5633,
      "guards": 5634,
      "guantanamo": 5635,
      "detain": 5636,
      "##onduct": 5637,
      "reck": 5638,
      "debates": 5639,
      "harm": 5640,
      "opport": 5641,
      "advances": 5642,
      "sweep": 5643,
      "survey": 5644,
      "annivers": 5645,
      "postbre": 5646,
      "##boy": 5647,
      "frank": 5648,
      "prepar": 5649,
      "raping": 5650,
      "extends": 5651,
      "shootings": 5652,
      "murders": 5653,
      "accepts": 5654,
      "academ": 5655,
      "ell": 5656,
      "weekend": 5657,
      "##who": 5658,
      "freak": 5659,
      "handling": 5660,
      "standoff": 5661,
      "spoke": 5662,
      "seekers": 5663,
      "venezuelas": 5664,
      "yemens": 5665,
      "potus": 5666,
      "double": 5667,
      "wonder": 5668,
      "option": 5669,
      "values": 5670,
      "prepare": 5671,
      "prepares": 5672,
      "halloween": 5673,
      "custody": 5674,
      "stole": 5675,
      "operative": 5676,
      "delayed": 5677,
      "stability": 5678,
      "aimed": 5679,
      "crossing": 5680,
      "selfd": 5681,
      "representative": 5682,
      "prayer": 5683,
      "cambodia": 5684,
      "malaysia": 5685,
      "organizer": 5686,
      "quickly": 5687,
      "##works": 5688,
      "customers": 5689,
      "vehicle": 5690,
      "accomplish": 5691,
      "almost": 5692,
      "misconduct": 5693,
      "antihillary": 5694,
      "dinesh": 5695,
      "unprecedented": 5696,
      "dsou": 5697,
      "anniversary": 5698,
      "postbrexit": 5699,
      "bashes": 5700,
      "cnbc": 5701,
      "ease": 5702,
      "fish": 5703,
      "giant": 5704,
      "jury": 5705,
      "lic": 5706,
      "lines": 5707,
      "nail": 5708,
      "oath": 5709,
      "oval": 5710,
      "ring": 5711,
      "sames": 5712,
      "tus": 5713,
      "tact": 5714,
      "wil": 5715,
      "##life": 5716,
      "##weet": 5717,
      "##uing": 5718,
      "##uana": 5719,
      "##ples": 5720,
      "##can": 5721,
      "##don": 5722,
      "##eas": 5723,
      "##tur": 5724,
      "##gun": 5725,
      "##kers": 5726,
      "##ket": 5727,
      "##ered": 5728,
      "##essee": 5729,
      "##enly": 5730,
      "##ature": 5731,
      "touch": 5732,
      "##ids": 5733,
      "thinking": 5734,
      "##asio": 5735,
      "style": 5736,
      "##urd": 5737,
      "##imid": 5738,
      "chile": 5739,
      "##atemal": 5740,
      "neg": 5741,
      "neon": 5742,
      "atlant": 5743,
      "unarmed": 5744,
      "exam": 5745,
      "abed": 5746,
      "blind": 5747,
      "senates": 5748,
      "##ague": 5749,
      "adds": 5750,
      "worries": 5751,
      "brought": 5752,
      "scrap": 5753,
      "normal": 5754,
      "hasnt": 5755,
      "mayors": 5756,
      "marij": 5757,
      "deploy": 5758,
      "##aches": 5759,
      "raised": 5760,
      "transport": 5761,
      "##books": 5762,
      "smear": 5763,
      "anyway": 5764,
      "writes": 5765,
      "freaks": 5766,
      "publicly": 5767,
      "batt": 5768,
      "inapp": 5769,
      "halts": 5770,
      "##aiting": 5771,
      "damascus": 5772,
      "current": 5773,
      "hypocritic": 5774,
      "walmart": 5775,
      "apologize": 5776,
      "entry": 5777,
      "ignorant": 5778,
      "include": 5779,
      "withdraws": 5780,
      "treaty": 5781,
      "observ": 5782,
      "techn": 5783,
      "petition": 5784,
      "widow": 5785,
      "honduran": 5786,
      "pacific": 5787,
      "mandate": 5788,
      "incredible": 5789,
      "fantas": 5790,
      "##undering": 5791,
      "waste": 5792,
      "temporary": 5793,
      "arrogant": 5794,
      "festival": 5795,
      "shadow": 5796,
      "analyst": 5797,
      "qaeda": 5798,
      "tennessee": 5799,
      "mississippi": 5800,
      "incompet": 5801,
      "samesex": 5802,
      "tusk": 5803,
      "marijuana": 5804,
      "ditch": 5805,
      "eve": 5806,
      "fare": 5807,
      "grants": 5808,
      "hill": 5809,
      "jet": 5810,
      "kent": 5811,
      "led": 5812,
      "lift": 5813,
      "langu": 5814,
      "oly": 5815,
      "pund": 5816,
      "ric": 5817,
      "sab": 5818,
      "size": 5819,
      "tired": 5820,
      "wrote": 5821,
      "##uly": 5822,
      "##awn": 5823,
      "##br": 5824,
      "##erial": 5825,
      "##erately": 5826,
      "##inary": 5827,
      "##inder": 5828,
      "##ani": 5829,
      "##alk": 5830,
      "##itarian": 5831,
      "trick": 5832,
      "##asks": 5833,
      "##rel": 5834,
      "forg": 5835,
      "##omy": 5836,
      "stran": 5837,
      "stone": 5838,
      "##ura": 5839,
      "##osa": 5840,
      "##utral": 5841,
      "##iab": 5842,
      "isol": 5843,
      "islands": 5844,
      "convoy": 5845,
      "conyers": 5846,
      "##ceed": 5847,
      "##ocrat": 5848,
      "cloon": 5849,
      "##uls": 5850,
      "##rain": 5851,
      "sued": 5852,
      "spect": 5853,
      "spied": 5854,
      "spray": 5855,
      "##ston": 5856,
      "##uds": 5857,
      "##ouri": 5858,
      "blue": 5859,
      "advert": 5860,
      "##aph": 5861,
      "scare": 5862,
      "upholds": 5863,
      "bob": 5864,
      "box": 5865,
      "temer": 5866,
      "commie": 5867,
      "partner": 5868,
      "terrified": 5869,
      "##erves": 5870,
      "officially": 5871,
      "contact": 5872,
      "guatemal": 5873,
      "events": 5874,
      "phase": 5875,
      "putins": 5876,
      "decides": 5877,
      "missouri": 5878,
      "destroying": 5879,
      "surge": 5880,
      "investigated": 5881,
      "slaps": 5882,
      "nypd": 5883,
      "feels": 5884,
      "holder": 5885,
      "inciting": 5886,
      "buying": 5887,
      "extrump": 5888,
      "extrad": 5889,
      "approved": 5890,
      "burned": 5891,
      "calm": 5892,
      "sentenced": 5893,
      "assaults": 5894,
      "hamas": 5895,
      "hamilton": 5896,
      "humiliating": 5897,
      "inaugural": 5898,
      "weapon": 5899,
      "celebrates": 5900,
      "pulled": 5901,
      "anthony": 5902,
      "affect": 5903,
      "finding": 5904,
      "predicts": 5905,
      "surprising": 5906,
      "condemn": 5907,
      "pictures": 5908,
      "punishment": 5909,
      "easily": 5910,
      "receives": 5911,
      "shocker": 5912,
      "raids": 5913,
      "weinstein": 5914,
      "minorities": 5915,
      "clarke": 5916,
      "benefit": 5917,
      "scalise": 5918,
      "cameroon": 5919,
      "january": 5920,
      "beyonce": 5921,
      "mulls": 5922,
      "enemy": 5923,
      "opponents": 5924,
      "cowardly": 5925,
      "upset": 5926,
      "divisive": 5927,
      "occup": 5928,
      "summons": 5929,
      "insulting": 5930,
      "cartoon": 5931,
      "##ilateral": 5932,
      "luxury": 5933,
      "repeatedly": 5934,
      "deficit": 5935,
      "maralago": 5936,
      "kennedy": 5937,
      "reckless": 5938,
      "inappropriate": 5939,
      "olymp": 5940,
      "clooney": 5941,
      "bit": 5942,
      "bitter": 5943,
      "cough": 5944,
      "hire": 5945,
      "jar": 5946,
      "mall": 5947,
      "pin": 5948,
      "tie": 5949,
      "##uels": 5950,
      "##crow": 5951,
      "##ius": 5952,
      "##giving": 5953,
      "##erc": 5954,
      "##anian": 5955,
      "##anged": 5956,
      "##onds": 5957,
      "##isions": 5958,
      "##edd": 5959,
      "trait": 5960,
      "forcing": 5961,
      "##tery": 5962,
      "##uri": 5963,
      "##chool": 5964,
      "##oster": 5965,
      "##vement": 5966,
      "shop": 5967,
      "neutral": 5968,
      "##anding": 5969,
      "##unte": 5970,
      "seats": 5971,
      "##ully": 5972,
      "##ansing": 5973,
      "spin": 5974,
      "abb": 5975,
      "##ube": 5976,
      "##eek": 5977,
      "blamed": 5978,
      "watters": 5979,
      "##ifer": 5980,
      "places": 5981,
      "outc": 5982,
      "donation": 5983,
      "nord": 5984,
      "##agement": 5985,
      "intimid": 5986,
      "griff": 5987,
      "minute": 5988,
      "partial": 5989,
      "moved": 5990,
      "##iously": 5991,
      "carly": 5992,
      "loose": 5993,
      "contenders": 5994,
      "opin": 5995,
      "phoen": 5996,
      "##bias": 5997,
      "compet": 5998,
      "peoples": 5999,
      "recover": 6000,
      "monitor": 6001,
      "##achs": 6002,
      "perus": 6003,
      "reporting": 6004,
      "beck": 6005,
      "helps": 6006,
      "driver": 6007,
      "drunk": 6008,
      "changed": 6009,
      "changing": 6010,
      "corker": 6011,
      "schooled": 6012,
      "slain": 6013,
      "slash": 6014,
      "higher": 6015,
      "highly": 6016,
      "criticizing": 6017,
      "##otten": 6018,
      "##ruption": 6019,
      "betray": 6020,
      "announced": 6021,
      "starbucks": 6022,
      "discusses": 6023,
      "communities": 6024,
      "girlfriend": 6025,
      "nevertrump": 6026,
      "stuns": 6027,
      "confirmed": 6028,
      "feminist": 6029,
      "begs": 6030,
      "damning": 6031,
      "reviews": 6032,
      "require": 6033,
      "glenn": 6034,
      "moderate": 6035,
      "district": 6036,
      "protecting": 6037,
      "emerge": 6038,
      "statues": 6039,
      "remark": 6040,
      "accuser": 6041,
      "endorsing": 6042,
      "##ukee": 6043,
      "##stitutional": 6044,
      "training": 6045,
      "authority": 6046,
      "birther": 6047,
      "termin": 6048,
      "##does": 6049,
      "extremely": 6050,
      "thanksgiving": 6051,
      "obsession": 6052,
      "commissioner": 6053,
      "entering": 6054,
      "vetoes": 6055,
      "felon": 6056,
      "odonnell": 6057,
      "volunte": 6058,
      "##waukee": 6059,
      "saudiled": 6060,
      "dropped": 6061,
      "involved": 6062,
      "garland": 6063,
      "settlement": 6064,
      "earthqu": 6065,
      "landsl": 6066,
      "angela": 6067,
      "machine": 6068,
      "belgian": 6069,
      "development": 6070,
      "snowflake": 6071,
      "figure": 6072,
      "whoopi": 6073,
      "wiretapping": 6074,
      "telev": 6075,
      "subsid": 6076,
      "fascist": 6077,
      "pissed": 6078,
      "psych": 6079,
      "fiorina": 6080,
      "rudy": 6081,
      "laptop": 6082,
      "kentucky": 6083,
      "phoenix": 6084,
      "bust": 6085,
      "cell": 6086,
      "gore": 6087,
      "hates": 6088,
      "lay": 6089,
      "nik": 6090,
      "pays": 6091,
      "rails": 6092,
      "rocks": 6093,
      "rino": 6094,
      "sounds": 6095,
      "sachs": 6096,
      "tank": 6097,
      "##cer": 6098,
      "##ections": 6099,
      "##blam": 6100,
      "##rist": 6101,
      "##my": 6102,
      "##free": 6103,
      "##inian": 6104,
      "##isi": 6105,
      "fort": 6106,
      "##terror": 6107,
      "##through": 6108,
      "clown": 6109,
      "##raid": 6110,
      "lemon": 6111,
      "unions": 6112,
      "spring": 6113,
      "##ively": 6114,
      "exist": 6115,
      "blog": 6116,
      "laundering": 6117,
      "alone": 6118,
      "polish": 6119,
      "combat": 6120,
      "sens": 6121,
      "plat": 6122,
      "##umers": 6123,
      "##enses": 6124,
      "scen": 6125,
      "books": 6126,
      "##mann": 6127,
      "weve": 6128,
      "symp": 6129,
      "##athers": 6130,
      "grass": 6131,
      "killings": 6132,
      "moham": 6133,
      "markets": 6134,
      "milwaukee": 6135,
      "confused": 6136,
      "guys": 6137,
      "admin": 6138,
      "voice": 6139,
      "factory": 6140,
      "insult": 6141,
      "awards": 6142,
      "shots": 6143,
      "violations": 6144,
      "advance": 6145,
      "retired": 6146,
      "driving": 6147,
      "match": 6148,
      "tweeted": 6149,
      "transcr": 6150,
      "barn": 6151,
      "infuri": 6152,
      "society": 6153,
      "nationalist": 6154,
      "feat": 6155,
      "smacks": 6156,
      "smoking": 6157,
      "setback": 6158,
      "##eryl": 6159,
      "wallace": 6160,
      "passed": 6161,
      "extend": 6162,
      "snip": 6163,
      "stars": 6164,
      "letting": 6165,
      "crown": 6166,
      "draw": 6167,
      "revamp": 6168,
      "##angag": 6169,
      "declare": 6170,
      "somal": 6171,
      "collaps": 6172,
      "poised": 6173,
      "soninlaw": 6174,
      "session": 6175,
      "damn": 6176,
      "prisoner": 6177,
      "globalist": 6178,
      "embarrassed": 6179,
      "choose": 6180,
      "chooses": 6181,
      "criminals": 6182,
      "afford": 6183,
      "mnangag": 6184,
      "doubts": 6185,
      "provoc": 6186,
      "regulator": 6187,
      "miser": 6188,
      "crew": 6189,
      "fundraising": 6190,
      "fcks": 6191,
      "lobb": 6192,
      "mexicans": 6193,
      "mcm": 6194,
      "screams": 6195,
      "confirmation": 6196,
      "fleeing": 6197,
      "crushes": 6198,
      "utah": 6199,
      "booed": 6200,
      "tackle": 6201,
      "bribery": 6202,
      "woodshed": 6203,
      "towards": 6204,
      "videotweets": 6205,
      "sacr": 6206,
      "columnist": 6207,
      "pardon": 6208,
      "congratulates": 6209,
      "code": 6210,
      "dy": 6211,
      "eld": 6212,
      "fals": 6213,
      "gays": 6214,
      "gain": 6215,
      "germans": 6216,
      "jails": 6217,
      "mir": 6218,
      "mun": 6219,
      "mix": 6220,
      "pit": 6221,
      "pants": 6222,
      "pms": 6223,
      "perry": 6224,
      "ren": 6225,
      "rans": 6226,
      "rum": 6227,
      "sun": 6228,
      "sites": 6229,
      "##uter": 6230,
      "##uise": 6231,
      "##paio": 6232,
      "##cy": 6233,
      "##cts": 6234,
      "##cont": 6235,
      "##held": 6236,
      "##bon": 6237,
      "##rous": 6238,
      "##makes": 6239,
      "##kins": 6240,
      "##fts": 6241,
      "##enger": 6242,
      "##ara": 6243,
      "##icles": 6244,
      "##ils": 6245,
      "##ilit": 6246,
      "##omm": 6247,
      "##olds": 6248,
      "##owing": 6249,
      "##child": 6250,
      "##aker": 6251,
      "##akers": 6252,
      "chain": 6253,
      "shake": 6254,
      "##tha": 6255,
      "andre": 6256,
      "andrew": 6257,
      "##anded": 6258,
      "behead": 6259,
      "##raph": 6260,
      "suu": 6261,
      "sudd": 6262,
      "abo": 6263,
      "altern": 6264,
      "polands": 6265,
      "houston": 6266,
      "##orting": 6267,
      "##antage": 6268,
      "justices": 6269,
      "arpaio": 6270,
      "##apo": 6271,
      "resh": 6272,
      "##ishes": 6273,
      "flip": 6274,
      "backl": 6275,
      "partisan": 6276,
      "quar": 6277,
      "active": 6278,
      "loan": 6279,
      "seeing": 6280,
      "theyll": 6281,
      "comply": 6282,
      "politically": 6283,
      "vision": 6284,
      "monument": 6285,
      "monuments": 6286,
      "clapper": 6287,
      "voices": 6288,
      "bomber": 6289,
      "switch": 6290,
      "surgery": 6291,
      "investigators": 6292,
      "irony": 6293,
      "signal": 6294,
      "criticize": 6295,
      "##inked": 6296,
      "childrens": 6297,
      "##onym": 6298,
      "income": 6299,
      "passenger": 6300,
      "interviews": 6301,
      "commitment": 6302,
      "promised": 6303,
      "palins": 6304,
      "radicals": 6305,
      "steel": 6306,
      "frees": 6307,
      "##ultz": 6308,
      "somalia": 6309,
      "flynns": 6310,
      "restore": 6311,
      "homeless": 6312,
      "executives": 6313,
      "##awi": 6314,
      "removes": 6315,
      "##umbles": 6316,
      "##immig": 6317,
      "walking": 6318,
      "entit": 6319,
      "cleansing": 6320,
      "golden": 6321,
      "goldman": 6322,
      "stronger": 6323,
      "tougher": 6324,
      "legislative": 6325,
      "##ukes": 6326,
      "##exp": 6327,
      "scared": 6328,
      "receive": 6329,
      "admitted": 6330,
      "cowards": 6331,
      "hidden": 6332,
      "bullied": 6333,
      "magn": 6334,
      "juan": 6335,
      "hearings": 6336,
      "footage": 6337,
      "carrying": 6338,
      "narrat": 6339,
      "doddf": 6340,
      "hammered": 6341,
      "##guess": 6342,
      "culture": 6343,
      "tonight": 6344,
      "##leader": 6345,
      "assemb": 6346,
      "rebuke": 6347,
      "bragging": 6348,
      "scorches": 6349,
      "obliter": 6350,
      "affairs": 6351,
      "bridgegate": 6352,
      "thailand": 6353,
      "casualties": 6354,
      "bikers": 6355,
      "groping": 6356,
      "checks": 6357,
      "limbaugh": 6358,
      "vulgar": 6359,
      "##crowd": 6360,
      "earthquake": 6361,
      "mnangagwa": 6362,
      "ransom": 6363,
      "##control": 6364,
      "doddfrank": 6365,
      "athe": 6366,
      "core": 6367,
      "cbo": 6368,
      "casts": 6369,
      "certain": 6370,
      "diam": 6371,
      "fill": 6372,
      "huff": 6373,
      "jf": 6374,
      "mary": 6375,
      "mide": 6376,
      "mika": 6377,
      "meryl": 6378,
      "nz": 6379,
      "piz": 6380,
      "rout": 6381,
      "rif": 6382,
      "rakh": 6383,
      "sisi": 6384,
      "vers": 6385,
      "wa": 6386,
      "zucker": 6387,
      "##upp": 6388,
      "##pol": 6389,
      "##person": 6390,
      "##iop": 6391,
      "##ease": 6392,
      "##tes": 6393,
      "##va": 6394,
      "##key": 6395,
      "##fbi": 6396,
      "##filled": 6397,
      "##just": 6398,
      "##esh": 6399,
      "##orman": 6400,
      "##acp": 6401,
      "##oting": 6402,
      "##etz": 6403,
      "chaff": 6404,
      "##ctors": 6405,
      "##lyn": 6406,
      "##iable": 6407,
      "shi": 6408,
      "shel": 6409,
      "shred": 6410,
      "sharing": 6411,
      "beach": 6412,
      "##ung": 6413,
      "seize": 6414,
      "##uled": 6415,
      "##ansion": 6416,
      "afraid": 6417,
      "suing": 6418,
      "spo": 6419,
      "##ighter": 6420,
      "examp": 6421,
      "##stone": 6422,
      "##uded": 6423,
      "obamaera": 6424,
      "cries": 6425,
      "##abul": 6426,
      "##ability": 6427,
      "brian": 6428,
      "pride": 6429,
      "expansion": 6430,
      "youve": 6431,
      "roger": 6432,
      "roads": 6433,
      "emir": 6434,
      "nov": 6435,
      "nobody": 6436,
      "defy": 6437,
      "defect": 6438,
      "partys": 6439,
      "antil": 6440,
      "apprent": 6441,
      "interests": 6442,
      "invitation": 6443,
      "indic": 6444,
      "indicted": 6445,
      "individ": 6446,
      "wind": 6447,
      "comparing": 6448,
      "computer": 6449,
      "fright": 6450,
      "immunity": 6451,
      "recon": 6452,
      "##roph": 6453,
      "remind": 6454,
      "regist": 6455,
      "advantage": 6456,
      "ruled": 6457,
      "raising": 6458,
      "nominates": 6459,
      "brawl": 6460,
      "busts": 6461,
      "smart": 6462,
      "criticized": 6463,
      "sett": 6464,
      "extension": 6465,
      "generals": 6466,
      "##ground": 6467,
      "acts": 6468,
      "classless": 6469,
      "revised": 6470,
      "ruined": 6471,
      "##borough": 6472,
      "blockade": 6473,
      "questioned": 6474,
      "screwed": 6475,
      "msnbcs": 6476,
      "summer": 6477,
      "curbs": 6478,
      "hypocrites": 6479,
      "singer": 6480,
      "modi": 6481,
      "punk": 6482,
      "leaker": 6483,
      "humanitarian": 6484,
      "ignored": 6485,
      "bashing": 6486,
      "basket": 6487,
      "endorsed": 6488,
      "boycot": 6489,
      "dreamer": 6490,
      "loud": 6491,
      "withdraw": 6492,
      "scarborough": 6493,
      "extremists": 6494,
      "nigerian": 6495,
      "admitting": 6496,
      "tradition": 6497,
      "saved": 6498,
      "ranch": 6499,
      "felony": 6500,
      "screaming": 6501,
      "analys": 6502,
      "oliver": 6503,
      "narrow": 6504,
      "reopens": 6505,
      "priority": 6506,
      "honduras": 6507,
      "fda": 6508,
      "oscar": 6509,
      "disgrace": 6510,
      "disagree": 6511,
      "exchange": 6512,
      "scientists": 6513,
      "katie": 6514,
      "smackdown": 6515,
      "abortions": 6516,
      "altright": 6517,
      "unleashes": 6518,
      "pirro": 6519,
      "ultimate": 6520,
      "hypocritical": 6521,
      "backlash": 6522,
      "mideast": 6523,
      "rakhine": 6524,
      "chaffetz": 6525,
      "ax": 6526,
      "bay": 6527,
      "bold": 6528,
      "dup": 6529,
      "danc": 6530,
      "each": 6531,
      "file": 6532,
      "foster": 6533,
      "gig": 6534,
      "gate": 6535,
      "gary": 6536,
      "gene": 6537,
      "hiring": 6538,
      "mut": 6539,
      "mate": 6540,
      "malia": 6541,
      "nut": 6542,
      "oust": 6543,
      "pil": 6544,
      "perman": 6545,
      "pitch": 6546,
      "purch": 6547,
      "rain": 6548,
      "rab": 6549,
      "sina": 6550,
      "tel": 6551,
      "tone": 6552,
      "ven": 6553,
      "wass": 6554,
      "##lies": 6555,
      "##was": 6556,
      "##tch": 6557,
      "##aust": 6558,
      "##vi": 6559,
      "##hes": 6560,
      "##hum": 6561,
      "##mans": 6562,
      "##xon": 6563,
      "##face": 6564,
      "##joy": 6565,
      "##erie": 6566,
      "##inh": 6567,
      "##anias": 6568,
      "##orruption": 6569,
      "though": 6570,
      "##rees": 6571,
      "##uset": 6572,
      "##aching": 6573,
      "##tered": 6574,
      "##amb": 6575,
      "##olu": 6576,
      "anad": 6577,
      "stad": 6578,
      "##urb": 6579,
      "##adi": 6580,
      "##ading": 6581,
      "cher": 6582,
      "##rest": 6583,
      "shif": 6584,
      "convers": 6585,
      "beats": 6586,
      "closing": 6587,
      "repeat": 6588,
      "unmas": 6589,
      "suc": 6590,
      "spr": 6591,
      "except": 6592,
      "exxon": 6593,
      "label": 6594,
      "crying": 6595,
      "attention": 6596,
      "##ranny": 6597,
      "resort": 6598,
      "scary": 6599,
      "fled": 6600,
      "imam": 6601,
      "##orship": 6602,
      "teens": 6603,
      "nobel": 6604,
      "miners": 6605,
      "showdown": 6606,
      "carbon": 6607,
      "loves": 6608,
      "indias": 6609,
      "fredd": 6610,
      "destruction": 6611,
      "hostile": 6612,
      "transpar": 6613,
      "slap": 6614,
      "posted": 6615,
      "fein": 6616,
      "freeze": 6617,
      "desperately": 6618,
      "treated": 6619,
      "issued": 6620,
      "graph": 6621,
      "stephan": 6622,
      "pupp": 6623,
      "revol": 6624,
      "conditions": 6625,
      "begging": 6626,
      "questioning": 6627,
      "screw": 6628,
      "requests": 6629,
      "audit": 6630,
      "skip": 6631,
      "breakthrough": 6632,
      "divor": 6633,
      "ceos": 6634,
      "pulling": 6635,
      "brazile": 6636,
      "naacp": 6637,
      "##others": 6638,
      "stupidity": 6639,
      "province": 6640,
      "accusers": 6641,
      "accusation": 6642,
      "bathrooms": 6643,
      "##iums": 6644,
      "contrib": 6645,
      "punished": 6646,
      "optim": 6647,
      "valerie": 6648,
      "treasur": 6649,
      "creation": 6650,
      "celebrity": 6651,
      "##breaking": 6652,
      "constitutional": 6653,
      "alex": 6654,
      "weiner": 6655,
      "unfit": 6656,
      "explosive": 6657,
      "cambodian": 6658,
      "bigoted": 6659,
      "complaint": 6660,
      "biased": 6661,
      "anticorruption": 6662,
      "kyi": 6663,
      "rosie": 6664,
      "denounces": 6665,
      "subpoena": 6666,
      "espn": 6667,
      "inspired": 6668,
      "demonst": 6669,
      "survivor": 6670,
      "strengthen": 6671,
      "retaliation": 6672,
      "podest": 6673,
      "indictment": 6674,
      "sparks": 6675,
      "coffee": 6676,
      "crucial": 6677,
      "matthews": 6678,
      "nunes": 6679,
      "unconstitutional": 6680,
      "prepared": 6681,
      "dsouza": 6682,
      "negative": 6683,
      "jarret": 6684,
      "abbas": 6685,
      "nikki": 6686,
      "diamond": 6687,
      "apprentice": 6688,
      "sinai": 6689,
      "anadolu": 6690,
      "freddie": 6691,
      "ahole": 6692,
      "bot": 6693,
      "bite": 6694,
      "bbc": 6695,
      "ding": 6696,
      "duck": 6697,
      "eg": 6698,
      "fault": 6699,
      "fully": 6700,
      "fathers": 6701,
      "hub": 6702,
      "lt": 6703,
      "lashes": 6704,
      "meth": 6705,
      "ri": 6706,
      "river": 6707,
      "tab": 6708,
      "vandal": 6709,
      "wing": 6710,
      "##oct": 6711,
      "##west": 6712,
      "##week": 6713,
      "##uits": 6714,
      "##iat": 6715,
      "##ients": 6716,
      "##ek": 6717,
      "##yad": 6718,
      "##gent": 6719,
      "##gue": 6720,
      "##muslim": 6721,
      "##only": 6722,
      "##ongh": 6723,
      "##isers": 6724,
      "truly": 6725,
      "##icult": 6726,
      "trumpp": 6727,
      "reward": 6728,
      "##roc": 6729,
      "forum": 6730,
      "##leans": 6731,
      "##oler": 6732,
      "stocks": 6733,
      "stuff": 6734,
      "##otic": 6735,
      "##urt": 6736,
      "##ershow": 6737,
      "usm": 6738,
      "##che": 6739,
      "##cha": 6740,
      "proving": 6741,
      "##une": 6742,
      "seiz": 6743,
      "closes": 6744,
      "unac": 6745,
      "unite": 6746,
      "unless": 6747,
      "spur": 6748,
      "abrupt": 6749,
      "##udge": 6750,
      "alask": 6751,
      "always": 6752,
      "demol": 6753,
      "twist": 6754,
      "##umes": 6755,
      "ark": 6756,
      "breach": 6757,
      "warm": 6758,
      "seconds": 6759,
      "roberts": 6760,
      "##errys": 6761,
      "symb": 6762,
      "defying": 6763,
      "##ruary": 6764,
      "itself": 6765,
      "content": 6766,
      "evisc": 6767,
      "frust": 6768,
      "gunman": 6769,
      "##achuset": 6770,
      "##quar": 6771,
      "chances": 6772,
      "discred": 6773,
      "facebooks": 6774,
      "slave": 6775,
      "##mark": 6776,
      "explod": 6777,
      "mostly": 6778,
      "related": 6779,
      "pregn": 6780,
      "antitr": 6781,
      "massachuset": 6782,
      "snub": 6783,
      "##ship": 6784,
      "farm": 6785,
      "prominent": 6786,
      "peacekeep": 6787,
      "disputed": 6788,
      "collins": 6789,
      "starting": 6790,
      "hunger": 6791,
      "embargo": 6792,
      "longtime": 6793,
      "craz": 6794,
      "bushs": 6795,
      "electron": 6796,
      "replacing": 6797,
      "greens": 6798,
      "membership": 6799,
      "##phone": 6800,
      "absurd": 6801,
      "throwing": 6802,
      "absolute": 6803,
      "sitin": 6804,
      "antigraft": 6805,
      "difficult": 6806,
      "##ructive": 6807,
      "bringing": 6808,
      "australias": 6809,
      "agreed": 6810,
      "customs": 6811,
      "briefings": 6812,
      "lesson": 6813,
      "##ophob": 6814,
      "impeached": 6815,
      "renegoti": 6816,
      "plotting": 6817,
      "ranks": 6818,
      "lifts": 6819,
      "painting": 6820,
      "seattle": 6821,
      "dictators": 6822,
      "arrive": 6823,
      "yells": 6824,
      "spotlight": 6825,
      "involvement": 6826,
      "malaysian": 6827,
      "trafficking": 6828,
      "crushed": 6829,
      "##liberal": 6830,
      "february": 6831,
      "enemies": 6832,
      "opponent": 6833,
      "postpones": 6834,
      "oscars": 6835,
      "rebuild": 6836,
      "construction": 6837,
      "colorado": 6838,
      "survivors": 6839,
      "##nowled": 6840,
      "resistance": 6841,
      "cohn": 6842,
      "built": 6843,
      "princip": 6844,
      "pursue": 6845,
      "ensure": 6846,
      "revenge": 6847,
      "biof": 6848,
      "similar": 6849,
      "kuwait": 6850,
      "quietly": 6851,
      "introduces": 6852,
      "adopt": 6853,
      "resettle": 6854,
      "bahrain": 6855,
      "opportunity": 6856,
      "language": 6857,
      "pundit": 6858,
      "extradition": 6859,
      "griffin": 6860,
      "landslide": 6861,
      "##blames": 6862,
      "platform": 6863,
      "assembly": 6864,
      "maryland": 6865,
      "antilgbt": 6866,
      "symbol": 6867,
      "massachusetts": 6868,
      "ack": 6869,
      "bible": 6870,
      "dershow": 6871,
      "elim": 6872,
      "eating": 6873,
      "equality": 6874,
      "ft": 6875,
      "fills": 6876,
      "jon": 6877,
      "kh": 6878,
      "kos": 6879,
      "ly": 6880,
      "lut": 6881,
      "mey": 6882,
      "mps": 6883,
      "poses": 6884,
      "ry": 6885,
      "rude": 6886,
      "sore": 6887,
      "sought": 6888,
      "xinh": 6889,
      "yout": 6890,
      "yah": 6891,
      "##linked": 6892,
      "##wr": 6893,
      "##dict": 6894,
      "##tv": 6895,
      "##vation": 6896,
      "##bit": 6897,
      "##bro": 6898,
      "##bow": 6899,
      "##bors": 6900,
      "##xual": 6901,
      "##anim": 6902,
      "##oring": 6903,
      "##orum": 6904,
      "##onias": 6905,
      "##alf": 6906,
      "##arily": 6907,
      "##arma": 6908,
      "##arthy": 6909,
      "##itual": 6910,
      "traged": 6911,
      "##iding": 6912,
      "initi": 6913,
      "reass": 6914,
      "##acular": 6915,
      "##eop": 6916,
      "##igin": 6917,
      "anonym": 6918,
      "##othing": 6919,
      "shr": 6920,
      "shed": 6921,
      "shames": 6922,
      "shocks": 6923,
      "##andan": 6924,
      "##ppo": 6925,
      "clos": 6926,
      "aside": 6927,
      "unh": 6928,
      "unlo": 6929,
      "univers": 6930,
      "unanim": 6931,
      "##ieve": 6932,
      "heat": 6933,
      "##alling": 6934,
      "blister": 6935,
      "causes": 6936,
      "##ags": 6937,
      "adam": 6938,
      "billboard": 6939,
      "##apt": 6940,
      "donna": 6941,
      "disast": 6942,
      "secession": 6943,
      "prices": 6944,
      "express": 6945,
      "expresses": 6946,
      "wash": 6947,
      "statements": 6948,
      "norway": 6949,
      "banning": 6950,
      "killers": 6951,
      "womans": 6952,
      "interv": 6953,
      "##ryption": 6954,
      "races": 6955,
      "militias": 6956,
      "probing": 6957,
      "schiff": 6958,
      "schae": 6959,
      "opio": 6960,
      "compar": 6961,
      "strongh": 6962,
      "harsh": 6963,
      "became": 6964,
      "decries": 6965,
      "decided": 6966,
      "polling": 6967,
      "islamists": 6968,
      "retweets": 6969,
      "wanting": 6970,
      "hacker": 6971,
      "runoff": 6972,
      "soccer": 6973,
      "genoc": 6974,
      "##heed": 6975,
      "highest": 6976,
      "##orders": 6977,
      "everyday": 6978,
      "everywhere": 6979,
      "denial": 6980,
      "discussion": 6981,
      "behalf": 6982,
      "farage": 6983,
      "elite": 6984,
      "activity": 6985,
      "communism": 6986,
      "businessman": 6987,
      "greatest": 6988,
      "cubans": 6989,
      "declared": 6990,
      "condition": 6991,
      "flying": 6992,
      "possibility": 6993,
      "covering": 6994,
      "spokesperson": 6995,
      "silk": 6996,
      "brutality": 6997,
      "moral": 6998,
      "additional": 6999,
      "shared": 7000,
      "malta": 7001,
      "celebrat": 7002,
      "goldberg": 7003,
      "rocket": 7004,
      "professors": 7005,
      "bloody": 7006,
      "followers": 7007,
      "##uffle": 7008,
      "favors": 7009,
      "stopped": 7010,
      "dismant": 7011,
      "lockheed": 7012,
      "ideas": 7013,
      "trading": 7014,
      "blasted": 7015,
      "solid": 7016,
      "houses": 7017,
      "aleppo": 7018,
      "cambodias": 7019,
      "odds": 7020,
      "bigotry": 7021,
      "struggle": 7022,
      "scalias": 7023,
      "##prof": 7024,
      "##itzer": 7025,
      "idiotic": 7026,
      "connect": 7027,
      "canceled": 7028,
      "reopen": 7029,
      "torches": 7030,
      "verdict": 7031,
      "papers": 7032,
      "disappointed": 7033,
      "incredibly": 7034,
      "discovered": 7035,
      "reverse": 7036,
      "disgraced": 7037,
      "mystery": 7038,
      "pigs": 7039,
      "simple": 7040,
      "kidnapped": 7041,
      "tshirt": 7042,
      "wwii": 7043,
      "wrecked": 7044,
      "sabot": 7045,
      "spectacular": 7046,
      "opinion": 7047,
      "television": 7048,
      "lobbying": 7049,
      "sacrific": 7050,
      "above": 7051,
      "quarter": 7052,
      "narrative": 7053,
      "jfk": 7054,
      "unaccept": 7055,
      "##quarters": 7056,
      "dershowitz": 7057,
      "meyers": 7058,
      "xinhua": 7059,
      "youtube": 7060,
      "tragedy": 7061,
      "blistering": 7062,
      "schaeub": 7063,
      "bond": 7064,
      "btch": 7065,
      "coc": 7066,
      "dub": 7067,
      "et": 7068,
      "fate": 7069,
      "fab": 7070,
      "fug": 7071,
      "gather": 7072,
      "hy": 7073,
      "hug": 7074,
      "icon": 7075,
      "ko": 7076,
      "lays": 7077,
      "lights": 7078,
      "likes": 7079,
      "mons": 7080,
      "native": 7081,
      "nba": 7082,
      "ow": 7083,
      "qb": 7084,
      "rent": 7085,
      "rising": 7086,
      "sain": 7087,
      "sacked": 7088,
      "tapes": 7089,
      "##oop": 7090,
      "##ovo": 7091,
      "##ware": 7092,
      "##ster": 7093,
      "##bbs": 7094,
      "##born": 7095,
      "##bye": 7096,
      "##beat": 7097,
      "##rys": 7098,
      "##riving": 7099,
      "##may": 7100,
      "##fall": 7101,
      "##fuge": 7102,
      "##faces": 7103,
      "##anks": 7104,
      "##antha": 7105,
      "##onic": 7106,
      "##onomy": 7107,
      "##ater": 7108,
      "##alds": 7109,
      "touts": 7110,
      "##itimate": 7111,
      "trucks": 7112,
      "trashing": 7113,
      "thr": 7114,
      "##eover": 7115,
      "determ": 7116,
      "strange": 7117,
      "user": 7118,
      "usled": 7119,
      "##imes": 7120,
      "##etown": 7121,
      "##osen": 7122,
      "chants": 7123,
      "##think": 7124,
      "proved": 7125,
      "##ocument": 7126,
      "##ocaust": 7127,
      "bee": 7128,
      "sector": 7129,
      "object": 7130,
      "##rah": 7131,
      "##rage": 7132,
      "goals": 7133,
      "league": 7134,
      "exus": 7135,
      "##opular": 7136,
      "lau": 7137,
      "alar": 7138,
      "houthis": 7139,
      "crony": 7140,
      "cruise": 7141,
      "twice": 7142,
      "meant": 7143,
      "##agers": 7144,
      "##agues": 7145,
      "attending": 7146,
      "cool": 7147,
      "expresident": 7148,
      "bogus": 7149,
      "boko": 7150,
      "dogs": 7151,
      "doctors": 7152,
      "tapped": 7153,
      "roast": 7154,
      "intoler": 7155,
      "##active": 7156,
      "orleans": 7157,
      "emissions": 7158,
      "noah": 7159,
      "campuses": 7160,
      "consulate": 7161,
      "offices": 7162,
      "##erved": 7163,
      "apply": 7164,
      "libs": 7165,
      "marines": 7166,
      "marawi": 7167,
      "##ontas": 7168,
      "##ograph": 7169,
      "debut": 7170,
      "##ahontas": 7171,
      "speeches": 7172,
      "haram": 7173,
      "##aze": 7174,
      "insan": 7175,
      "oppression": 7176,
      "impl": 7177,
      "implic": 7178,
      "impose": 7179,
      "airports": 7180,
      "nationals": 7181,
      "regard": 7182,
      "regret": 7183,
      "pressured": 7184,
      "rajoy": 7185,
      "barred": 7186,
      "headquarters": 7187,
      "meme": 7188,
      "visiting": 7189,
      "worldwide": 7190,
      "rapists": 7191,
      "holocaust": 7192,
      "anymore": 7193,
      "latin": 7194,
      "interviewed": 7195,
      "popul": 7196,
      "played": 7197,
      "serial": 7198,
      "performan": 7199,
      "approach": 7200,
      "classic": 7201,
      "##angel": 7202,
      "virus": 7203,
      "disputes": 7204,
      "hometown": 7205,
      "##going": 7206,
      "screen": 7207,
      "##ology": 7208,
      "prosecution": 7209,
      "##media": 7210,
      "bali": 7211,
      "babis": 7212,
      "divide": 7213,
      "modern": 7214,
      "vetting": 7215,
      "programs": 7216,
      "defended": 7217,
      "teenage": 7218,
      "fallon": 7219,
      "follows": 7220,
      "insurers": 7221,
      "grows": 7222,
      "extremist": 7223,
      "extremism": 7224,
      "escape": 7225,
      "streep": 7226,
      "hatch": 7227,
      "stomp": 7228,
      "uncle": 7229,
      "tourist": 7230,
      "tourism": 7231,
      "micro": 7232,
      "obsessed": 7233,
      "overseas": 7234,
      "creates": 7235,
      "renew": 7236,
      "locker": 7237,
      "portland": 7238,
      "eyeing": 7239,
      "##engers": 7240,
      "unpopular": 7241,
      "neighbors": 7242,
      "scrut": 7243,
      "punched": 7244,
      "martial": 7245,
      "identity": 7246,
      "producer": 7247,
      "encryption": 7248,
      "tightens": 7249,
      "spreading": 7250,
      "##leading": 7251,
      "assets": 7252,
      "thrown": 7253,
      "surrender": 7254,
      "samantha": 7255,
      "undermine": 7256,
      "describes": 7257,
      "francisco": 7258,
      "censorship": 7259,
      "mlk": 7260,
      "improve": 7261,
      "separatist": 7262,
      "neocon": 7263,
      "ticket": 7264,
      "compromise": 7265,
      "selfdriving": 7266,
      "tactics": 7267,
      "abedin": 7268,
      "traitor": 7269,
      "##doesnt": 7270,
      "blogger": 7271,
      "barnier": 7272,
      "somalias": 7273,
      "dyer": 7274,
      "falsely": 7275,
      "zuckerberg": 7276,
      "shiite": 7277,
      "basketball": 7278,
      "stephanopoulos": 7279,
      "divorce": 7280,
      "treasurys": 7281,
      "podesta": 7282,
      "riyad": 7283,
      "eviscerates": 7284,
      "resettlement": 7285,
      "acknowled": 7286,
      "kosovo": 7287,
      "luther": 7288,
      "yahoo": 7289,
      "anonymous": 7290,
      "disastrous": 7291,
      "comparison": 7292,
      "unacceptable": 7293,
      "performance": 7294,
      "riyadh": 7295,
      "band": 7296,
      "bast": 7297,
      "bott": 7298,
      "bunch": 7299,
      "cos": 7300,
      "dick": 7301,
      "fol": 7302,
      "fif": 7303,
      "foul": 7304,
      "gates": 7305,
      "hails": 7306,
      "ive": 7307,
      "jos": 7308,
      "kuc": 7309,
      "kabul": 7310,
      "mail": 7311,
      "map": 7312,
      "mount": 7313,
      "mothers": 7314,
      "nug": 7315,
      "py": 7316,
      "pill": 7317,
      "panders": 7318,
      "rail": 7319,
      "sail": 7320,
      "ts": 7321,
      "tass": 7322,
      "typ": 7323,
      "##long": 7324,
      "##oes": 7325,
      "##oge": 7326,
      "##ule": 7327,
      "##pers": 7328,
      "##president": 7329,
      "##point": 7330,
      "##could": 7331,
      "##iar": 7332,
      "##dont": 7333,
      "##drop": 7334,
      "##nown": 7335,
      "##ho": 7336,
      "##bal": 7337,
      "##bom": 7338,
      "##known": 7339,
      "##xist": 7340,
      "##ford": 7341,
      "##oned": 7342,
      "##itors": 7343,
      "##edown": 7344,
      "trap": 7345,
      "##ilation": 7346,
      "ine": 7347,
      "##reads": 7348,
      "##rogate": 7349,
      "##illa": 7350,
      "##ente": 7351,
      "deter": 7352,
      "stey": 7353,
      "whe": 7354,
      "##char": 7355,
      "##ima": 7356,
      "##acking": 7357,
      "##ested": 7358,
      "goal": 7359,
      "lefts": 7360,
      "undo": 7361,
      "sums": 7362,
      "spit": 7363,
      "heard": 7364,
      "heated": 7365,
      "newly": 7366,
      "exerc": 7367,
      "alan": 7368,
      "overwh": 7369,
      "crushing": 7370,
      "watched": 7371,
      "sense": 7372,
      "##umber": 7373,
      "outlets": 7374,
      "donate": 7375,
      "coach": 7376,
      "##ements": 7377,
      "##izer": 7378,
      "secrets": 7379,
      "expands": 7380,
      "exports": 7381,
      "suppression": 7382,
      "doom": 7383,
      "dobbs": 7384,
      "flies": 7385,
      "flints": 7386,
      "koreans": 7387,
      "medias": 7388,
      "roasts": 7389,
      "rogue": 7390,
      "protected": 7391,
      "intens": 7392,
      "attacker": 7393,
      "origin": 7394,
      "minds": 7395,
      "camps": 7396,
      "##icked": 7397,
      "antiab": 7398,
      "##icting": 7399,
      "turmo": 7400,
      "libert": 7401,
      "campaigning": 7402,
      "actors": 7403,
      "##retch": 7404,
      "theyve": 7405,
      "##encing": 7406,
      "guine": 7407,
      "recent": 7408,
      "recip": 7409,
      "leftwing": 7410,
      "harder": 7411,
      "insider": 7412,
      "decisions": 7413,
      "violated": 7414,
      "desert": 7415,
      "delta": 7416,
      "channel": 7417,
      "material": 7418,
      "foreigners": 7419,
      "surrogate": 7420,
      "panels": 7421,
      "panther": 7422,
      "barb": 7423,
      "barron": 7424,
      "investigator": 7425,
      "posting": 7426,
      "generation": 7427,
      "explained": 7428,
      "fees": 7429,
      "mccarthy": 7430,
      "peters": 7431,
      "somebody": 7432,
      "advisory": 7433,
      "colleagues": 7434,
      "committing": 7435,
      "discussing": 7436,
      "protestors": 7437,
      "daniel": 7438,
      "burning": 7439,
      "buried": 7440,
      "keystone": 7441,
      "convince": 7442,
      "cutting": 7443,
      "failing": 7444,
      "claimed": 7445,
      "##employ": 7446,
      "reduce": 7447,
      "maintain": 7448,
      "watergate": 7449,
      "skin": 7450,
      "curr": 7451,
      "cheers": 7452,
      "replaces": 7453,
      "##after": 7454,
      "ballots": 7455,
      "walks": 7456,
      "praising": 7457,
      "strongly": 7458,
      "surprised": 7459,
      "charlie": 7460,
      "deeply": 7461,
      "horrifying": 7462,
      "frontrun": 7463,
      "muellers": 7464,
      "excia": 7465,
      "centers": 7466,
      "takedown": 7467,
      "reaches": 7468,
      "##andering": 7469,
      "stabbed": 7470,
      "indiana": 7471,
      "negotiate": 7472,
      "displaced": 7473,
      "hispanics": 7474,
      "engine": 7475,
      "counterterror": 7476,
      "scottish": 7477,
      "websites": 7478,
      "wedding": 7479,
      "successor": 7480,
      "zealands": 7481,
      "obstruct": 7482,
      "disrespecting": 7483,
      "connection": 7484,
      "evacuation": 7485,
      "denounce": 7486,
      "bosn": 7487,
      "disclosure": 7488,
      "customer": 7489,
      "triggered": 7490,
      "fdp": 7491,
      "##claims": 7492,
      "hanging": 7493,
      "village": 7494,
      "santorum": 7495,
      "##ields": 7496,
      "deleted": 7497,
      "describe": 7498,
      "hook": 7499,
      "hoax": 7500,
      "ronald": 7501,
      "stirs": 7502,
      "separatists": 7503,
      "dragged": 7504,
      "gabri": 7505,
      "prospect": 7506,
      "premier": 7507,
      "antisemitic": 7508,
      "projects": 7509,
      "ellen": 7510,
      "guatemala": 7511,
      "elderly": 7512,
      "##children": 7513,
      "alternative": 7514,
      "##immigrant": 7515,
      "rifle": 7516,
      "registration": 7517,
      "geneva": 7518,
      "permanent": 7519,
      "usmex": 7520,
      "alaska": 7521,
      "unloads": 7522,
      "schaeuble": 7523,
      "overwhel": 7524,
      "antiabortion": 7525,
      "turmoil": 7526,
      "counterterrorism": 7527,
      "acl": 7528,
      "ailes": 7529,
      "bam": 7530,
      "buzz": 7531,
      "bilateral": 7532,
      "cert": 7533,
      "dia": 7534,
      "fk": 7535,
      "gh": 7536,
      "gap": 7537,
      "geral": 7538,
      "gins": 7539,
      "hq": 7540,
      "hab": 7541,
      "hints": 7542,
      "jab": 7543,
      "jason": 7544,
      "jerry": 7545,
      "mul": 7546,
      "nons": 7547,
      "naked": 7548,
      "pic": 7549,
      "poc": 7550,
      "pee": 7551,
      "pens": 7552,
      "pock": 7553,
      "rag": 7554,
      "rates": 7555,
      "rural": 7556,
      "sri": 7557,
      "tay": 7558,
      "table": 7559,
      "uber": 7560,
      "ucla": 7561,
      "yates": 7562,
      "##lif": 7563,
      "##word": 7564,
      "##uh": 7565,
      "##cade": 7566,
      "##coming": 7567,
      "##iod": 7568,
      "##dom": 7569,
      "##eak": 7570,
      "##nels": 7571,
      "##ten": 7572,
      "##yder": 7573,
      "##van": 7574,
      "##vant": 7575,
      "##ht": 7576,
      "##his": 7577,
      "##hran": 7578,
      "##hner": 7579,
      "##based": 7580,
      "##rac": 7581,
      "##ram": 7582,
      "##rib": 7583,
      "##rence": 7584,
      "##mate": 7585,
      "##mail": 7586,
      "##mys": 7587,
      "##fund": 7588,
      "##fakenews": 7589,
      "##anger": 7590,
      "##arant": 7591,
      "##inge": 7592,
      "##itage": 7593,
      "trend": 7594,
      "##icut": 7595,
      "thwart": 7596,
      "ingra": 7597,
      "##rele": 7598,
      "reh": 7599,
      "reign": 7600,
      "ford": 7601,
      "forec": 7602,
      "forgot": 7603,
      "onto": 7604,
      "##igdem": 7605,
      "stream": 7606,
      "##urge": 7607,
      "usrussia": 7608,
      "##china": 7609,
      "##ett": 7610,
      "chase": 7611,
      "shell": 7612,
      "shakes": 7613,
      "shady": 7614,
      "shawn": 7615,
      "constit": 7616,
      "conways": 7617,
      "proc": 7618,
      "proceed": 7619,
      "obv": 7620,
      "unemploy": 7621,
      "presence": 7622,
      "##strom": 7623,
      "ability": 7624,
      "abadi": 7625,
      "blat": 7626,
      "laura": 7627,
      "meghan": 7628,
      "##agger": 7629,
      "##aped": 7630,
      "##encement": 7631,
      "##emed": 7632,
      "##iking": 7633,
      "heritage": 7634,
      "scene": 7635,
      "explo": 7636,
      "refusal": 7637,
      "tehran": 7638,
      "newsweek": 7639,
      "gren": 7640,
      "grid": 7641,
      "grif": 7642,
      "mining": 7643,
      "commencement": 7644,
      "defiant": 7645,
      "particip": 7646,
      "##icken": 7647,
      "saw": 7648,
      "libr": 7649,
      "marks": 7650,
      "marsh": 7651,
      "que": 7652,
      "log": 7653,
      "##eph": 7654,
      "##ashed": 7655,
      "indoct": 7656,
      "##bsessed": 7657,
      "oped": 7658,
      "guarant": 7659,
      "compared": 7660,
      "ended": 7661,
      "debbie": 7662,
      "permit": 7663,
      "permits": 7664,
      "epip": 7665,
      "supremacy": 7666,
      "opposing": 7667,
      "decree": 7668,
      "investors": 7669,
      "sheila": 7670,
      "retreat": 7671,
      "urged": 7672,
      "fundament": 7673,
      "panama": 7674,
      "yourself": 7675,
      "##renching": 7676,
      "opened": 7677,
      "relatives": 7678,
      "suspic": 7679,
      "suspend": 7680,
      "broken": 7681,
      "prefer": 7682,
      "visited": 7683,
      "walls": 7684,
      "passengers": 7685,
      "belong": 7686,
      "belief": 7687,
      "snyder": 7688,
      "collect": 7689,
      "hoping": 7690,
      "gotcha": 7691,
      "farmers": 7692,
      "pushed": 7693,
      "puigdem": 7694,
      "washingtons": 7695,
      "drain": 7696,
      "drawing": 7697,
      "##pitals": 7698,
      "attorneys": 7699,
      "returning": 7700,
      "revive": 7701,
      "ruin": 7702,
      "serving": 7703,
      "lawsuits": 7704,
      "yrs": 7705,
      "specific": 7706,
      "##empt": 7707,
      "challenging": 7708,
      "pences": 7709,
      "crowds": 7710,
      "skit": 7711,
      "electors": 7712,
      "banker": 7713,
      "bankrupt": 7714,
      "moroc": 7715,
      "laughed": 7716,
      "replaced": 7717,
      "greed": 7718,
      "ivank": 7719,
      "glad": 7720,
      "hotels": 7721,
      "moder": 7722,
      "clearly": 7723,
      "distract": 7724,
      "mali": 7725,
      "pakist": 7726,
      "muham": 7727,
      "troop": 7728,
      "ignorance": 7729,
      "christianity": 7730,
      "prediction": 7731,
      "complex": 7732,
      "foes": 7733,
      "credibility": 7734,
      "horror": 7735,
      "reading": 7736,
      "##uffs": 7737,
      "misleading": 7738,
      "takeover": 7739,
      "bullies": 7740,
      "plea": 7741,
      "apartment": 7742,
      "argentinas": 7743,
      "hospitals": 7744,
      "negotiator": 7745,
      "negotiations": 7746,
      "cheering": 7747,
      "unfair": 7748,
      "successful": 7749,
      "skewers": 7750,
      "autonomy": 7751,
      "colombias": 7752,
      "products": 7753,
      "disrespectful": 7754,
      "dissent": 7755,
      "anticop": 7756,
      "connected": 7757,
      "##rapher": 7758,
      "escalates": 7759,
      "beyonc": 7760,
      "machines": 7761,
      "rosen": 7762,
      "belgium": 7763,
      "subpoenas": 7764,
      "witnesses": 7765,
      "fantastic": 7766,
      "throat": 7767,
      "undocument": 7768,
      "circuit": 7769,
      "akbar": 7770,
      "mysterious": 7771,
      "nhc": 7772,
      "aggressive": 7773,
      "antimuslim": 7774,
      "embrace": 7775,
      "kenyas": 7776,
      "skeptical": 7777,
      "champion": 7778,
      "smuggling": 7779,
      "heavy": 7780,
      "manipul": 7781,
      "loyalty": 7782,
      "sweeping": 7783,
      "wilbur": 7784,
      "fantasy": 7785,
      "coughing": 7786,
      "neutrality": 7787,
      "intimidation": 7788,
      "subsidies": 7789,
      "mohammed": 7790,
      "sniper": 7791,
      "mcmaster": 7792,
      "andrea": 7793,
      "suddenly": 7794,
      "entitled": 7795,
      "huffing": 7796,
      "pizza": 7797,
      "frightening": 7798,
      "analysis": 7799,
      "graphic": 7800,
      "dingbat": 7801,
      "arkansas": 7802,
      "pregnant": 7803,
      "stronghold": 7804,
      "gabriel": 7805,
      "usmexico": 7806,
      "overwhelming": 7807,
      "mulvan": 7808,
      "pocahontas": 7809,
      "ingraham": 7810,
      "constitu": 7811,
      "indoctr": 7812,
      "puigdemont": 7813,
      "undocumented": 7814,
      "mulvaney": 7815,
      "bish": 7816,
      "buck": 7817,
      "bought": 7818,
      "cake": 7819,
      "cock": 7820,
      "dar": 7821,
      "dose": 7822,
      "fi": 7823,
      "fm": 7824,
      "fee": 7825,
      "fence": 7826,
      "gest": 7827,
      "hud": 7828,
      "jenn": 7829,
      "kings": 7830,
      "lunch": 7831,
      "mort": 7832,
      "mask": 7833,
      "ns": 7834,
      "nr": 7835,
      "nix": 7836,
      "pul": 7837,
      "rw": 7838,
      "ride": 7839,
      "range": 7840,
      "sin": 7841,
      "ster": 7842,
      "sight": 7843,
      "sinks": 7844,
      "tir": 7845,
      "torn": 7846,
      "vince": 7847,
      "wer": 7848,
      "wif": 7849,
      "wives": 7850,
      "wide": 7851,
      "wapo": 7852,
      "yard": 7853,
      "yuge": 7854,
      "zones": 7855,
      "##obia": 7856,
      "##with": 7857,
      "##cnn": 7858,
      "##days": 7859,
      "##dles": 7860,
      "##ees": 7861,
      "##ean": 7862,
      "##ever": 7863,
      "##torm": 7864,
      "##vor": 7865,
      "##bul": 7866,
      "##borders": 7867,
      "##mac": 7868,
      "##mission": 7869,
      "##far": 7870,
      "##jo": 7871,
      "##erun": 7872,
      "##inating": 7873,
      "##inable": 7874,
      "##anes": 7875,
      "toky": 7876,
      "##isra": 7877,
      "##islam": 7878,
      "tra": 7879,
      "##iced": 7880,
      "##icum": 7881,
      "##ilities": 7882,
      "threw": 7883,
      "##tsbur": 7884,
      "sting": 7885,
      "staged": 7886,
      "##aded": 7887,
      "##adic": 7888,
      "##adel": 7889,
      "whiny": 7890,
      "##erst": 7891,
      "##iment": 7892,
      "cham": 7893,
      "shep": 7894,
      "nep": 7895,
      "##ither": 7896,
      "##thats": 7897,
      "##ceeds": 7898,
      "season": 7899,
      "clothing": 7900,
      "leaking": 7901,
      "spat": 7902,
      "##state": 7903,
      "blu": 7904,
      "alb": 7905,
      "altle": 7906,
      "##tons": 7907,
      "offended": 7908,
      "caves": 7909,
      "cairo": 7910,
      "bye": 7911,
      "note": 7912,
      "envo": 7913,
      "##aping": 7914,
      "lawn": 7915,
      "reserve": 7916,
      "##izz": 7917,
      "scra": 7918,
      "boots": 7919,
      "supply": 7920,
      "supplies": 7921,
      "doors": 7922,
      "tamp": 7923,
      "allah": 7924,
      "backers": 7925,
      "backfire": 7926,
      "consult": 7927,
      "##bermann": 7928,
      "finish": 7929,
      "finicum": 7930,
      "invite": 7931,
      "##ogy": 7932,
      "evangel": 7933,
      "complic": 7934,
      "strip": 7935,
      "assess": 7936,
      "##makers": 7937,
      "maf": 7938,
      "opposed": 7939,
      "##ollar": 7940,
      "airstr": 7941,
      "swift": 7942,
      "swipe": 7943,
      "deserve": 7944,
      "retweet": 7945,
      "legally": 7946,
      "drink": 7947,
      "drivers": 7948,
      "urgent": 7949,
      "transform": 7950,
      "barc": 7951,
      "bars": 7952,
      "investigations": 7953,
      "slaves": 7954,
      "postc": 7955,
      "putintrump": 7956,
      "nationalists": 7957,
      "signific": 7958,
      "bravo": 7959,
      "mccains": 7960,
      "trevor": 7961,
      "acqu": 7962,
      "elites": 7963,
      "freaking": 7964,
      "##anky": 7965,
      "happening": 7966,
      "##comp": 7967,
      "cophating": 7968,
      "conviction": 7969,
      "restra": 7970,
      "moments": 7971,
      "badass": 7972,
      "cancelled": 7973,
      "parliamentary": 7974,
      "networks": 7975,
      "reviewing": 7976,
      "waterboard": 7977,
      "##ification": 7978,
      "##umbling": 7979,
      "##zyns": 7980,
      "repealing": 7981,
      "laughable": 7982,
      "fourth": 7983,
      "kingmaker": 7984,
      "glass": 7985,
      "pastors": 7986,
      "##steins": 7987,
      "humanity": 7988,
      "ethiop": 7989,
      "civilian": 7990,
      "yemeni": 7991,
      "warnings": 7992,
      "salary": 7993,
      "predicted": 7994,
      "limited": 7995,
      "legislature": 7996,
      "cracks": 7997,
      "cooperate": 7998,
      "contrad": 7999,
      "wells": 8000,
      "production": 8001,
      "punishing": 8002,
      "trolling": 8003,
      "trolled": 8004,
      "royal": 8005,
      "extreme": 8006,
      "hatred": 8007,
      "stooge": 8008,
      "accepting": 8009,
      "tourists": 8010,
      "stabbing": 8011,
      "microph": 8012,
      "##itten": 8013,
      "captured": 8014,
      "celebrities": 8015,
      "##hani": 8016,
      "conflicts": 8017,
      "english": 8018,
      "promotes": 8019,
      "poster": 8020,
      "floods": 8021,
      "petty": 8022,
      "solve": 8023,
      "hawk": 8024,
      "survive": 8025,
      "lifting": 8026,
      "rolling": 8027,
      "separate": 8028,
      "scrub": 8029,
      "clarity": 8030,
      "levin": 8031,
      "levels": 8032,
      "identified": 8033,
      "complaints": 8034,
      "dropping": 8035,
      "olbermann": 8036,
      "cameras": 8037,
      "dissident": 8038,
      "icah": 8039,
      "random": 8040,
      "tribun": 8041,
      "tribute": 8042,
      "ramaph": 8043,
      "berlin": 8044,
      "squad": 8045,
      "utter": 8046,
      "euros": 8047,
      "cultural": 8048,
      "boehner": 8049,
      "lunatic": 8050,
      "discovery": 8051,
      "towns": 8052,
      "bonkers": 8053,
      "hangs": 8054,
      "##iption": 8055,
      "santa": 8056,
      "snowflakes": 8057,
      "quote": 8058,
      "quotes": 8059,
      "recruit": 8060,
      "correctness": 8061,
      "##idelines": 8062,
      "appointment": 8063,
      "kidnapping": 8064,
      "broadcaster": 8065,
      "pssy": 8066,
      "assistant": 8067,
      "havana": 8068,
      "august": 8069,
      "tanz": 8070,
      "segment": 8071,
      "associates": 8072,
      "uncertainty": 8073,
      "evacuated": 8074,
      "sloven": 8075,
      "millennials": 8076,
      "accomplishments": 8077,
      "license": 8078,
      "neonazi": 8079,
      "atlantic": 8080,
      "farewell": 8081,
      "forgotten": 8082,
      "olympics": 8083,
      "outcome": 8084,
      "scenes": 8085,
      "transcript": 8086,
      "collapses": 8087,
      "miserably": 8088,
      "mixed": 8089,
      "pittsbur": 8090,
      "jarrett": 8091,
      "abruptly": 8092,
      "peacekeepers": 8093,
      "electronic": 8094,
      "genocide": 8095,
      "connecticut": 8096,
      "fabric": 8097,
      "monster": 8098,
      "saint": 8099,
      "regarding": 8100,
      "scrutiny": 8101,
      "kuczyns": 8102,
      "nugent": 8103,
      "guinea": 8104,
      "nonsense": 8105,
      "epipen": 8106,
      "fundamental": 8107,
      "tirade": 8108,
      "werent": 8109,
      "##israel": 8110,
      "altleft": 8111,
      "envoys": 8112,
      "pittsburgh": 8113,
      "bin": 8114,
      "bed": 8115,
      "bure": 8116,
      "dm": 8117,
      "dou": 8118,
      "erupt": 8119,
      "faking": 8120,
      "gro": 8121,
      "gill": 8122,
      "gear": 8123,
      "gork": 8124,
      "gross": 8125,
      "ghet": 8126,
      "holl": 8127,
      "hikes": 8128,
      "hiro": 8129,
      "jur": 8130,
      "lik": 8131,
      "lanka": 8132,
      "livid": 8133,
      "mas": 8134,
      "nu": 8135,
      "nerv": 8136,
      "ovation": 8137,
      "pimp": 8138,
      "pumm": 8139,
      "rt": 8140,
      "rank": 8141,
      "tys": 8142,
      "tony": 8143,
      "uzb": 8144,
      "wave": 8145,
      "wann": 8146,
      "zar": 8147,
      "##list": 8148,
      "##lasio": 8149,
      "##ped": 8150,
      "##part": 8151,
      "##pass": 8152,
      "##cial": 8153,
      "##cano": 8154,
      "##dam": 8155,
      "##eign": 8156,
      "##aq": 8157,
      "##aad": 8158,
      "##ym": 8159,
      "##sons": 8160,
      "##hit": 8161,
      "##gage": 8162,
      "##gles": 8163,
      "##bec": 8164,
      "##bashing": 8165,
      "##rations": 8166,
      "##mad": 8167,
      "##mates": 8168,
      "##field": 8169,
      "##erated": 8170,
      "##erica": 8171,
      "##atri": 8172,
      "##arts": 8173,
      "##itude": 8174,
      "##ilder": 8175,
      "##ilize": 8176,
      "##rep": 8177,
      "##acter": 8178,
      "##acey": 8179,
      "##roar": 8180,
      "##elected": 8181,
      "degen": 8182,
      "##igen": 8183,
      "##omfort": 8184,
      "ank": 8185,
      "stam": 8186,
      "stress": 8187,
      "sticks": 8188,
      "##ote": 8189,
      "##urate": 8190,
      "##adan": 8191,
      "##chief": 8192,
      "##aken": 8193,
      "##etrump": 8194,
      "chosen": 8195,
      "##vereign": 8196,
      "sham": 8197,
      "##irds": 8198,
      "necess": 8199,
      "concl": 8200,
      "##ceal": 8201,
      "prolife": 8202,
      "progun": 8203,
      "##ocal": 8204,
      "##andals": 8205,
      "obj": 8206,
      "obtain": 8207,
      "cleric": 8208,
      "ast": 8209,
      "unexp": 8210,
      "such": 8211,
      "spill": 8212,
      "spends": 8213,
      "spreads": 8214,
      "##uder": 8215,
      "blas": 8216,
      "overd": 8217,
      "overr": 8218,
      "overth": 8219,
      "overtime": 8220,
      "notice": 8221,
      "##ignores": 8222,
      "plag": 8223,
      "##ighting": 8224,
      "donated": 8225,
      "disar": 8226,
      "disqual": 8227,
      "disease": 8228,
      "uproar": 8229,
      "prin": 8230,
      "hait": 8231,
      "boot": 8232,
      "couric": 8233,
      "weather": 8234,
      "protections": 8235,
      "syn": 8236,
      "intention": 8237,
      "integ": 8238,
      "##arded": 8239,
      "allen": 8240,
      "defies": 8241,
      "consent": 8242,
      "syrians": 8243,
      "cards": 8244,
      "##ongyan": 8245,
      "##clin": 8246,
      "accent": 8247,
      "param": 8248,
      "industr": 8249,
      "phones": 8250,
      "pharma": 8251,
      "frame": 8252,
      "respects": 8253,
      "endanger": 8254,
      "admission": 8255,
      "recuse": 8256,
      "recomm": 8257,
      "deblasio": 8258,
      "sovereign": 8259,
      "period": 8260,
      "##ricts": 8261,
      "aware": 8262,
      "impasse": 8263,
      "airline": 8264,
      "knocks": 8265,
      "nationwide": 8266,
      "violating": 8267,
      "desire": 8268,
      "dram": 8269,
      "drives": 8270,
      "corresp": 8271,
      "##insky": 8272,
      "barbar": 8273,
      "catch": 8274,
      "catast": 8275,
      "nye": 8276,
      "nyts": 8277,
      "openborders": 8278,
      "suspension": 8279,
      "suspicious": 8280,
      "prec": 8281,
      "catalonias": 8282,
      "hurting": 8283,
      "latinos": 8284,
      "departments": 8285,
      "snark": 8286,
      "timeline": 8287,
      "##anced": 8288,
      "tarmac": 8289,
      "##grade": 8290,
      "croat": 8291,
      "funnel": 8292,
      "picked": 8293,
      "write": 8294,
      "steals": 8295,
      "internal": 8296,
      "drags": 8297,
      "murderer": 8298,
      "allegiance": 8299,
      "standards": 8300,
      "macri": 8301,
      "rejected": 8302,
      "goodbye": 8303,
      "stunt": 8304,
      "devices": 8305,
      "homophob": 8306,
      "##goes": 8307,
      "rebukes": 8308,
      "prosecute": 8309,
      "photog": 8310,
      "required": 8311,
      "morgan": 8312,
      "cheating": 8313,
      "filed": 8314,
      "choices": 8315,
      "personally": 8316,
      "attempted": 8317,
      "offering": 8318,
      "comeback": 8319,
      "predict": 8320,
      "falling": 8321,
      "deepens": 8322,
      "demanded": 8323,
      "sitting": 8324,
      "produce": 8325,
      "easier": 8326,
      "##egal": 8327,
      "reactions": 8328,
      "momentum": 8329,
      "receiving": 8330,
      "billionaires": 8331,
      "experience": 8332,
      "operating": 8333,
      "husbands": 8334,
      "illness": 8335,
      "dirt": 8336,
      "oversee": 8337,
      "heartbreaking": 8338,
      "creating": 8339,
      "duke": 8340,
      "rescued": 8341,
      "bulgar": 8342,
      "previously": 8343,
      "increasing": 8344,
      "displays": 8345,
      "trader": 8346,
      "traditional": 8347,
      "promoting": 8348,
      "includes": 8349,
      "assassinated": 8350,
      "enforce": 8351,
      "uganda": 8352,
      "ugandan": 8353,
      "ode": 8354,
      "volcano": 8355,
      "clarify": 8356,
      "skewer": 8357,
      "saleh": 8358,
      "commercial": 8359,
      "autom": 8360,
      "delegate": 8361,
      "delegation": 8362,
      "beginning": 8363,
      "ramadan": 8364,
      "settlements": 8365,
      "digital": 8366,
      "awarded": 8367,
      "priorities": 8368,
      "antiimmigrant": 8369,
      "escalation": 8370,
      "slapped": 8371,
      "stamps": 8372,
      "tonights": 8373,
      "woods": 8374,
      "constructive": 8375,
      "recruits": 8376,
      "laden": 8377,
      "capable": 8378,
      "broadcast": 8379,
      "aggression": 8380,
      "builds": 8381,
      "sleeping": 8382,
      "tshirts": 8383,
      "rouhani": 8384,
      "advocates": 8385,
      "segreg": 8386,
      "scheduled": 8387,
      "pedophile": 8388,
      "apparently": 8389,
      "motorcade": 8390,
      "prompt": 8391,
      "transportation": 8392,
      "incompetent": 8393,
      "##ocrats": 8394,
      "nordstrom": 8395,
      "volunteers": 8396,
      "sensitive": 8397,
      "grassley": 8398,
      "featuring": 8399,
      "reshuffle": 8400,
      "version": 8401,
      "##upporting": 8402,
      "example": 8403,
      "exploding": 8404,
      "biofuels": 8405,
      "ryans": 8406,
      "opioid": 8407,
      "celebrating": 8408,
      "lauer": 8409,
      "folks": 8410,
      "pyongyan": 8411,
      "##bomb": 8412,
      "currency": 8413,
      "aclu": 8414,
      "taylor": 8415,
      "pakistans": 8416,
      "mafia": 8417,
      "waterboarding": 8418,
      "utterly": 8419,
      "kuczynski": 8420,
      "gorka": 8421,
      "uzbek": 8422,
      "unexpected": 8423,
      "integration": 8424,
      "correspond": 8425,
      "pyongyang": 8426,
      "baiting": 8427,
      "cot": 8428,
      "cream": 8429,
      "cpac": 8430,
      "dash": 8431,
      "ec": 8432,
      "ego": 8433,
      "fu": 8434,
      "fking": 8435,
      "fallen": 8436,
      "fidel": 8437,
      "gor": 8438,
      "gif": 8439,
      "jeop": 8440,
      "kate": 8441,
      "lord": 8442,
      "mp": 8443,
      "math": 8444,
      "mold": 8445,
      "miam": 8446,
      "mtv": 8447,
      "nas": 8448,
      "niet": 8449,
      "orange": 8450,
      "pool": 8451,
      "pne": 8452,
      "rinos": 8453,
      "sod": 8454,
      "sally": 8455,
      "tub": 8456,
      "tag": 8457,
      "tip": 8458,
      "tong": 8459,
      "tips": 8460,
      "wears": 8461,
      "##like": 8462,
      "##overn": 8463,
      "##pen": 8464,
      "##cut": 8465,
      "##cons": 8466,
      "##cott": 8467,
      "##def": 8468,
      "##tig": 8469,
      "##vet": 8470,
      "##hand": 8471,
      "##bard": 8472,
      "##fir": 8473,
      "##fires": 8474,
      "##zins": 8475,
      "##inter": 8476,
      "##aning": 8477,
      "##ena": 8478,
      "##atal": 8479,
      "##aria": 8480,
      "tool": 8481,
      "toss": 8482,
      "##itism": 8483,
      "##itable": 8484,
      "##isa": 8485,
      "##ede": 8486,
      "##icon": 8487,
      "thaad": 8488,
      "inner": 8489,
      "instit": 8490,
      "##asp": 8491,
      "##ionate": 8492,
      "##usp": 8493,
      "rex": 8494,
      "reaching": 8495,
      "##roll": 8496,
      "##elo": 8497,
      "##amation": 8498,
      "##amble": 8499,
      "##leck": 8500,
      "degr": 8501,
      "##omas": 8502,
      "##oln": 8503,
      "anim": 8504,
      "stood": 8505,
      "stable": 8506,
      "stores": 8507,
      "stresses": 8508,
      "stalled": 8509,
      "##adv": 8510,
      "wheres": 8511,
      "##utin": 8512,
      "shaking": 8513,
      "shaked": 8514,
      "##irm": 8515,
      "neck": 8516,
      "##ista": 8517,
      "##andez": 8518,
      "beer": 8519,
      "##ppers": 8520,
      "##eston": 8521,
      "##esting": 8522,
      "asst": 8523,
      "obamat": 8524,
      "spark": 8525,
      "hears": 8526,
      "exod": 8527,
      "exfbi": 8528,
      "prestig": 8529,
      "##stan": 8530,
      "abused": 8531,
      "##uding": 8532,
      "bloc": 8533,
      "blasio": 8534,
      "##opes": 8535,
      "overtur": 8536,
      "trumpsupporting": 8537,
      "offsh": 8538,
      "caut": 8539,
      "##essions": 8540,
      "comfort": 8541,
      "##ibbe": 8542,
      "##uming": 8543,
      "arsen": 8544,
      "enters": 8545,
      "##ipts": 8546,
      "outlines": 8547,
      "lawrence": 8548,
      "cof": 8549,
      "brze": 8550,
      "resur": 8551,
      "scale": 8552,
      "scores": 8553,
      "upon": 8554,
      "upcoming": 8555,
      "haiti": 8556,
      "supposed": 8557,
      "taun": 8558,
      "governments": 8559,
      "intent": 8560,
      "##action": 8561,
      "gray": 8562,
      "gram": 8563,
      "grade": 8564,
      "grills": 8565,
      "hasht": 8566,
      "defin": 8567,
      "defund": 8568,
      "antich": 8569,
      "manches": 8570,
      "management": 8571,
      "##bern": 8572,
      "cann": 8573,
      "dealt": 8574,
      "amount": 8575,
      "ammon": 8576,
      "caribbe": 8577,
      "fines": 8578,
      "raceo": 8579,
      "confusion": 8580,
      "deplo": 8581,
      "schol": 8582,
      "schumers": 8583,
      "guide": 8584,
      "counts": 8585,
      "detect": 8586,
      "admir": 8587,
      "admissions": 8588,
      "charts": 8589,
      "charles": 8590,
      "tops": 8591,
      "harbor": 8592,
      "boris": 8593,
      "awful": 8594,
      "missp": 8595,
      "supported": 8596,
      "hostages": 8597,
      "raw": 8598,
      "barz": 8599,
      "nominations": 8600,
      "bernies": 8601,
      "slur": 8602,
      "genius": 8603,
      "catches": 8604,
      "direction": 8605,
      "deadl": 8606,
      "signing": 8607,
      "prez": 8608,
      "smacked": 8609,
      "##ordinary": 8610,
      "setting": 8611,
      "testing": 8612,
      "apec": 8613,
      "bette": 8614,
      "holiday": 8615,
      "passionate": 8616,
      "catalans": 8617,
      "buff": 8618,
      "advisors": 8619,
      "budd": 8620,
      "despic": 8621,
      "series": 8622,
      "kurz": 8623,
      "fireworks": 8624,
      "grabs": 8625,
      "listening": 8626,
      "mayoral": 8627,
      "greater": 8628,
      "allegation": 8629,
      "restart": 8630,
      "restored": 8631,
      "assaulting": 8632,
      "##lessly": 8633,
      "devil": 8634,
      "colluded": 8635,
      "hamm": 8636,
      "pomp": 8637,
      "poem": 8638,
      "subst": 8639,
      "humiliate": 8640,
      "profits": 8641,
      "penalty": 8642,
      "damaging": 8643,
      "sara": 8644,
      "silver": 8645,
      "electric": 8646,
      "imagesvideo": 8647,
      "division": 8648,
      "ivory": 8649,
      "##phia": 8650,
      "natural": 8651,
      "jrs": 8652,
      "districts": 8653,
      "sharif": 8654,
      "romania": 8655,
      "romanian": 8656,
      "pelosis": 8657,
      "celebration": 8658,
      "walker": 8659,
      "##obamas": 8660,
      "praised": 8661,
      "affected": 8662,
      "affleck": 8663,
      "ukrainian": 8664,
      "joining": 8665,
      "regulators": 8666,
      "corps": 8667,
      "sheriffs": 8668,
      "product": 8669,
      "sells": 8670,
      "readers": 8671,
      "husse": 8672,
      "valley": 8673,
      "nigerias": 8674,
      "kevin": 8675,
      "blacklist": 8676,
      "complains": 8677,
      "flex": 8678,
      "liars": 8679,
      "stabs": 8680,
      "renews": 8681,
      "renewed": 8682,
      "married": 8683,
      "popularity": 8684,
      "##brech": 8685,
      "##new": 8686,
      "entertain": 8687,
      "delivered": 8688,
      "pretending": 8689,
      "familys": 8690,
      "medicare": 8691,
      "paint": 8692,
      "rowe": 8693,
      "weinsteins": 8694,
      "courage": 8695,
      "couples": 8696,
      "punches": 8697,
      "identify": 8698,
      "jerseys": 8699,
      "reagans": 8700,
      "toddler": 8701,
      "grader": 8702,
      "organizations": 8703,
      "immediate": 8704,
      "mitchell": 8705,
      "shameful": 8706,
      "recognition": 8707,
      "hecklers": 8708,
      "deplorables": 8709,
      "suggesting": 8710,
      "##guard": 8711,
      "disclose": 8712,
      "fatal": 8713,
      "extraordinary": 8714,
      "##graph": 8715,
      "reverses": 8716,
      "registered": 8717,
      "vehicles": 8718,
      "bashed": 8719,
      "tyco": 8720,
      "disagrees": 8721,
      "delete": 8722,
      "temporarily": 8723,
      "abandoned": 8724,
      "divisions": 8725,
      "suffer": 8726,
      "lobbyist": 8727,
      "mladic": 8728,
      "encouraging": 8729,
      "blew": 8730,
      "dedic": 8731,
      "tanks": 8732,
      "tolerant": 8733,
      "tolerance": 8734,
      "learned": 8735,
      "practice": 8736,
      "philadel": 8737,
      "tunisia": 8738,
      "losers": 8739,
      "prompts": 8740,
      "loyal": 8741,
      "viciously": 8742,
      "pinera": 8743,
      "monitoring": 8744,
      "shakeup": 8745,
      "obliterates": 8746,
      "defector": 8747,
      "dancing": 8748,
      "rabid": 8749,
      "##human": 8750,
      "stadium": 8751,
      "transparency": 8752,
      "feinstein": 8753,
      "puppet": 8754,
      "optimistic": 8755,
      "demonstrates": 8756,
      "seizure": 8757,
      "frustrated": 8758,
      "discredit": 8759,
      "lyin": 8760,
      "initiative": 8761,
      "unanimously": 8762,
      "sabotage": 8763,
      "fugitive": 8764,
      "fifth": 8765,
      "inequality": 8766,
      "frontrunner": 8767,
      "ginsburg": 8768,
      "huffington": 8769,
      "chamber": 8770,
      "restraint": 8771,
      "ramaphosa": 8772,
      "tyson": 8773,
      "snarky": 8774,
      "jeopard": 8775,
      "miami": 8776,
      "nieto": 8777,
      "pneum": 8778,
      "##overnment": 8779,
      "##zinski": 8780,
      "shakedown": 8781,
      "exodus": 8782,
      "prestigious": 8783,
      "brzezinski": 8784,
      "manchester": 8785,
      "caribbean": 8786,
      "philadelphia": 8787,
      "aver": 8788,
      "bb": 8789,
      "bub": 8790,
      "brat": 8791,
      "bran": 8792,
      "baio": 8793,
      "bapt": 8794,
      "cf": 8795,
      "cz": 8796,
      "ceme": 8797,
      "dim": 8798,
      "dance": 8799,
      "dads": 8800,
      "fro": 8801,
      "fist": 8802,
      "gal": 8803,
      "gian": 8804,
      "hail": 8805,
      "hated": 8806,
      "hating": 8807,
      "linc": 8808,
      "nod": 8809,
      "nick": 8810,
      "nurs": 8811,
      "ot": 8812,
      "por": 8813,
      "pam": 8814,
      "pour": 8815,
      "pok": 8816,
      "pbs": 8817,
      "pending": 8818,
      "rot": 8819,
      "sie": 8820,
      "sdf": 8821,
      "task": 8822,
      "tiny": 8823,
      "wary": 8824,
      "wider": 8825,
      "yale": 8826,
      "##lus": 8827,
      "##oice": 8828,
      "##ca": 8829,
      "##cle": 8830,
      "##iors": 8831,
      "##ni": 8832,
      "##author": 8833,
      "##vely": 8834,
      "##hal": 8835,
      "##hap": 8836,
      "##ga": 8837,
      "##gle": 8838,
      "##gian": 8839,
      "##gely": 8840,
      "##baiting": 8841,
      "##rade": 8842,
      "##rio": 8843,
      "##made": 8844,
      "##kill": 8845,
      "##fare": 8846,
      "##jury": 8847,
      "##oral": 8848,
      "##arity": 8849,
      "todays": 8850,
      "##itory": 8851,
      "##itely": 8852,
      "tri": 8853,
      "tree": 8854,
      "trips": 8855,
      "trumpt": 8856,
      "##ionage": 8857,
      "reich": 8858,
      "##illegal": 8859,
      "##america": 8860,
      "onair": 8861,
      "##lee": 8862,
      "decept": 8863,
      "stays": 8864,
      "stations": 8865,
      "stages": 8866,
      "##uru": 8867,
      "##uries": 8868,
      "##add": 8869,
      "##ersons": 8870,
      "##imed": 8871,
      "##etime": 8872,
      "##ethe": 8873,
      "chiles": 8874,
      "shield": 8875,
      "conne": 8876,
      "conceal": 8877,
      "bear": 8878,
      "bears": 8879,
      "seizes": 8880,
      "seoul": 8881,
      "clay": 8882,
      "clerk": 8883,
      "reps": 8884,
      "reput": 8885,
      "repatri": 8886,
      "afd": 8887,
      "spies": 8888,
      "abuses": 8889,
      "bless": 8890,
      "blank": 8891,
      "##ially": 8892,
      "##opol": 8893,
      "lap": 8894,
      "lavoy": 8895,
      "watson": 8896,
      "agric": 8897,
      "cringe": 8898,
      "meat": 8899,
      "caps": 8900,
      "##anted": 8901,
      "plows": 8902,
      "##abes": 8903,
      "##assified": 8904,
      "adele": 8905,
      "outp": 8906,
      "disreg": 8907,
      "##izr": 8908,
      "scolds": 8909,
      "scandals": 8910,
      "expels": 8911,
      "boos": 8912,
      "suppress": 8913,
      "norways": 8914,
      "refle": 8915,
      "roof": 8916,
      "ord": 8917,
      "grip": 8918,
      "grace": 8919,
      "grands": 8920,
      "banner": 8921,
      "allahu": 8922,
      "background": 8923,
      "defamation": 8924,
      "antir": 8925,
      "antib": 8926,
      "consens": 8927,
      "mog": 8928,
      "mood": 8929,
      "appla": 8930,
      "interrupt": 8931,
      "plants": 8932,
      "carp": 8933,
      "cares": 8934,
      "lots": 8935,
      "##ongering": 8936,
      "##rete": 8937,
      "iranians": 8938,
      "yearend": 8939,
      "schultz": 8940,
      "oprah": 8941,
      "struck": 8942,
      "##osexual": 8943,
      "imminent": 8944,
      "tweetstorm": 8945,
      "gunfire": 8946,
      "gunmen": 8947,
      "recalls": 8948,
      "charter": 8949,
      "helm": 8950,
      "helton": 8951,
      "##look": 8952,
      "perver": 8953,
      "perjury": 8954,
      "##ullah": 8955,
      "missed": 8956,
      "sway": 8957,
      "##eneg": 8958,
      "delib": 8959,
      "drama": 8960,
      "drilling": 8961,
      "sexism": 8962,
      "transfer": 8963,
      "barg": 8964,
      "investigates": 8965,
      "slush": 8966,
      "slaugh": 8967,
      "irrele": 8968,
      "propert": 8969,
      "childish": 8970,
      "everybody": 8971,
      "bidens": 8972,
      "rapes": 8973,
      "incoming": 8974,
      "passport": 8975,
      "hurdle": 8976,
      "hurdles": 8977,
      "timing": 8978,
      "##shima": 8979,
      "##version": 8980,
      "desperation": 8981,
      "farc": 8982,
      "tillersons": 8983,
      "kellys": 8984,
      "steins": 8985,
      "stewart": 8986,
      "messages": 8987,
      "classy": 8988,
      "angers": 8989,
      "resigning": 8990,
      "declaring": 8991,
      "maced": 8992,
      "veryfakenews": 8993,
      "restruct": 8994,
      "moms": 8995,
      "jobless": 8996,
      "privat": 8997,
      "failures": 8998,
      "subway": 8999,
      "femin": 9000,
      "profan": 9001,
      "profile": 9002,
      "hunting": 9003,
      "reduc": 9004,
      "longterm": 9005,
      "pena": 9006,
      "craft": 9007,
      "##awns": 9008,
      "removing": 9009,
      "##ological": 9010,
      "##umble": 9011,
      "skills": 9012,
      "greet": 9013,
      "personnel": 9014,
      "singing": 9015,
      "violently": 9016,
      "revealing": 9017,
      "buildings": 9018,
      "talked": 9019,
      "letterman": 9020,
      "naval": 9021,
      "endorsements": 9022,
      "ukraines": 9023,
      "crookedhillary": 9024,
      "salv": 9025,
      "teenager": 9026,
      "deeper": 9027,
      "accusing": 9028,
      "nigel": 9029,
      "credible": 9030,
      "credential": 9031,
      "easing": 9032,
      "readies": 9033,
      "largely": 9034,
      "##ifax": 9035,
      "alabamas": 9036,
      "vacc": 9037,
      "focused": 9038,
      "mockery": 9039,
      "unclear": 9040,
      "uncomfort": 9041,
      "operatives": 9042,
      "plead": 9043,
      "please": 9044,
      "heartless": 9045,
      "renewal": 9046,
      "capture": 9047,
      "celebrations": 9048,
      "bullet": 9049,
      "portug": 9050,
      "satan": 9051,
      "##attled": 9052,
      "scotland": 9053,
      "teaching": 9054,
      "saving": 9055,
      "assassinate": 9056,
      "survives": 9057,
      "painful": 9058,
      "sudans": 9059,
      "prayers": 9060,
      "mcdon": 9061,
      "jihadi": 9062,
      "jihadist": 9063,
      "dumps": 9064,
      "motion": 9065,
      "purple": 9066,
      "olig": 9067,
      "formally": 9068,
      "bosses": 9069,
      "yellen": 9070,
      "trashed": 9071,
      "dissidents": 9072,
      "troubled": 9073,
      "gradu": 9074,
      "organizers": 9075,
      "meaning": 9076,
      "angeles": 9077,
      "escalate": 9078,
      "ownership": 9079,
      "torched": 9080,
      "suggestion": 9081,
      "papua": 9082,
      "disappear": 9083,
      "contractor": 9084,
      "deranged": 9085,
      "espionage": 9086,
      "lunacy": 9087,
      "cooperating": 9088,
      "inspect": 9089,
      "performing": 9090,
      "kaepernicks": 9091,
      "hungarys": 9092,
      "undermining": 9093,
      "ladies": 9094,
      "shouting": 9095,
      "equifax": 9096,
      "thailands": 9097,
      "abdullah": 9098,
      "montana": 9099,
      "pssed": 9100,
      "liberia": 9101,
      "carsons": 9102,
      "sandy": 9103,
      "learn": 9104,
      "schedule": 9105,
      "lesbian": 9106,
      "apparent": 9107,
      "manufacturing": 9108,
      "anarchists": 9109,
      "##icipal": 9110,
      "##boycott": 9111,
      "academic": 9112,
      "neonazis": 9113,
      "deployment": 9114,
      "incompetence": 9115,
      "##related": 9116,
      "sprayed": 9117,
      "betrayal": 9118,
      "fortune": 9119,
      "sympath": 9120,
      "miracle": 9121,
      "municipal": 9122,
      "##ilitary": 9123,
      "route": 9124,
      "reconc": 9125,
      "pilot": 9126,
      "shifts": 9127,
      "antitrust": 9128,
      "khizr": 9129,
      "unhcr": 9130,
      "##mayor": 9131,
      "bottom": 9132,
      "joseph": 9133,
      "steyn": 9134,
      "buzzfe": 9135,
      "diagn": 9136,
      "geraldo": 9137,
      "##ribution": 9138,
      "obvious": 9139,
      "beliefs": 9140,
      "greedy": 9141,
      "ivankas": 9142,
      "nixon": 9143,
      "wifes": 9144,
      "airstrikes": 9145,
      "barcel": 9146,
      "postcoup": 9147,
      "significant": 9148,
      "microphone": 9149,
      "tribunal": 9150,
      "hiroshima": 9151,
      "nuke": 9152,
      "override": 9153,
[...]
